<unk>	0
<s>	0
</s>	0
▁the	-3.20791
.	-3.24682
,	-3.49614
▁of	-3.49869
▁and	-3.93326
▁a	-4.07185
▁in	-4.1973
▁is	-4.21678
▁-	-4.2744
▁to	-4.28195
▁	-4.49213
▁or	-4.56702
s	-4.5768
▁are	-4.70696
▁(	-4.72852
▁The	-4.78169
▁that	-4.94791
-	-4.98401
▁with	-5.00525
▁may	-5.01339
)	-5.05528
▁for	-5.0904
▁have	-5.21657
▁be	-5.24953
▁can	-5.37577
▁people	-5.39525
▁symptoms	-5.49835
▁?	-5.53009
▁as	-5.55721
▁A	-5.56858
▁What	-5.58876
▁on	-5.60404
▁syndrome	-5.63797
▁condition	-5.65693
:	-5.67095
▁symptom	-5.69187
▁from	-5.71416
ing	-5.76754
▁disease	-5.77553
▁an	-5.77629
▁blood	-5.79983
▁information	-5.81151
▁by	-5.82144
al	-5.86565
▁cause	-5.87248
▁patients	-5.87882
▁your	-5.88406
▁cancer	-5.92357
▁also	-5.95041
▁these	-5.99053
▁number	-6.00416
▁this	-6.03588
▁who	-6.0453
▁gene	-6.04674
▁not	-6.075
▁signs	-6.09678
e	-6.11106
▁frequency	-6.11812
▁In	-6.1227
▁treatment	-6.13377
▁how	-6.14495
▁cells	-6.15188
d	-6.17216
▁which	-6.18409
▁you	-6.18511
▁often	-6.22304
▁available	-6.24059
▁one	-6.25579
'	-6.2572
90%	-6.25912
▁body	-6.25942
▁other	-6.26505
▁has	-6.31122
▁sign	-6.32844
▁type	-6.33151
▁study	-6.3506
%	-6.37514
se	-6.40025
▁called	-6.40083
▁fraction	-6.41688
▁cases	-6.43356
▁7.5	-6.4493
▁50%	-6.4618
▁rare	-6.47993
▁it	-6.48683
▁more	-6.49703
▁usually	-6.50384
▁many	-6.51317
ed	-6.51799
▁include	-6.52611
▁about	-6.53493
▁heart	-6.5369
▁affected	-6.5467
▁if	-6.5555
▁This	-6.55623
▁risk	-6.58444
).	-6.60997
▁such	-6.63144
▁If	-6.63688
▁at	-6.63691
▁disorder	-6.65158
▁inherited	-6.67869
▁clinical	-6.68354
▁no	-6.6898
▁common	-6.693
?	-6.70372
▁cell	-6.71926
;	-6.72033
▁On	-6.72605
▁were	-6.73478
▁health	-6.75082
▁For	-6.78104
▁Human	-6.78287
▁Phenotyp	-6.80558
▁listed	-6.80649
▁examined	-6.80818
are	-6.8096
▁trials	-6.8206
tology	-6.82148
▁treatments	-6.82651
▁following	-6.83162
),	-6.8339
ir	-6.83751
▁problems	-6.83778
▁found	-6.84696
▁most	-6.85394
ly	-6.85486
▁occurs	-6.85777
▁than	-6.85815
▁skin	-6.87043
▁P	-6.87533
▁up	-6.89016
▁MedlinePlus	-6.90567
▁all	-6.90899
▁some	-6.91219
▁first	-6.92637
▁use	-6.92715
▁mutations	-6.92971
▁means	-6.93002
▁brain	-6.94095
▁individuals	-6.94141
▁they	-6.94688
t	-6.94939
▁therapy	-6.95008
▁protein	-6.95437
▁help	-6.96992
▁medical	-6.97381
▁different	-6.98807
▁You	-7.00485
▁specific	-7.00615
▁genetic	-7.0066
▁but	-7.00734
▁causes	-7.00781
/	-7.0086
▁1	-7.01799
▁C	-7.01972
▁each	-7.03329
ic	-7.03331
1	-7.04404
▁do	-7.04641
▁lead	-7.05799
▁It	-7.05983
▁recessive	-7.06487
▁autosomal	-7.07061
▁doctor	-7.07563
a	-7.08472
bnormality	-7.0851
▁will	-7.08681
▁Genetic	-7.0896
▁muscle	-7.09631
▁into	-7.09925
▁diagnosis	-7.1026
▁provides	-7.10697
▁Be	-7.1172
based	-7.12672
y	-7.13145
▁deficiency	-7.13409
▁system	-7.13722
▁How	-7.14087
▁another	-7.1414
▁used	-7.14768
▁H	-7.14944
▁Some	-7.15118
▁been	-7.15476
▁through	-7.16743
▁changes	-7.17197
▁person	-7.1884
▁group	-7.19529
▁example	-7.19694
▁when	-7.19813
▁form	-7.20068
▁Symptoms	-7.20724
▁pain	-7.20753
▁care	-7.21116
▁tumor	-7.21652
5	-7.22928
▁Signs	-7.23116
cause	-7.23146
▁look	-7.23781
▁tests	-7.24349
▁had	-7.24352
▁loss	-7.25301
▁part	-7.25415
▁occur	-7.26481
▁inheritance	-7.26877
▁develop	-7.26944
▁Treatment	-7.27708
▁types	-7.28037
▁after	-7.28055
▁bone	-7.2917
▁estimate	-7.29423
▁normal	-7.29666
▁list	-7.30048
▁small	-7.30187
▁test	-7.30233
▁seen	-7.30279
▁includes	-7.30468
▁genes	-7.30551
▁high	-7.30941
▁Sometimes	-7.31218
▁children	-7.32712
▁X	-7.33092
▁diabetes	-7.33283
us	-7.33379
▁severe	-7.3382
▁result	-7.34041
▁during	-7.34685
▁second	-7.34963
▁kidney	-7.35439
▁below	-7.36441
▁surgery	-7.3653
▁conditions	-7.37814
▁dominant	-7.38034
▁tissue	-7.39505
▁2	-7.40225
▁feature	-7.40227
▁S	-7.40673
▁prevent	-7.41373
▁total	-7.41574
▁management	-7.41872
▁Medical	-7.42078
▁liver	-7.42961
or	-7.43033
▁25	-7.43229
▁percentage	-7.43828
▁features	-7.44005
▁People	-7.44754
▁table	-7.45349
▁comes	-7.45494
▁time	-7.45666
▁development	-7.46637
when	-7.47607
▁Much	-7.47638
▁European	-7.48864
▁new	-7.49543
▁collected	-7.49806
▁resources	-7.50047
▁M	-7.50233
▁rough	-7.50376
▁database	-7.50421
▁factors	-7.50448
▁terms	-7.50485
▁definition	-7.50691
▁two	-7.50876
▁Dic	-7.5116
HPO	-7.51503
▁25/2	-7.51506
▁frequencies	-7.51594
▁Approximate	-7.51625
▁Orphanet	-7.5164
tionary	-7.51648
▁get	-7.5329
▁levels	-7.53446
▁affect	-7.54266
▁Other	-7.54791
▁eye	-7.55286
▁only	-7.55766
▁age	-7.56165
▁should	-7.56339
▁any	-7.57047
▁Testing	-7.57181
▁pressure	-7.585
▁typically	-7.58844
utosomal	-7.5919
▁Registry	-7.60611
▁associated	-7.60683
2	-7.60937
A	-7.60965
▁both	-7.61833
▁certain	-7.62672
▁including	-7.63392
▁family	-7.63946
▁abnormal	-7.64159
▁known	-7.64284
▁Surgery	-7.64822
▁related	-7.65841
▁There	-7.66115
▁copy	-7.66756
▁abnormalities	-7.66969
▁out	-7.67059
▁Is	-7.67322
▁infection	-7.67599
▁function	-7.68072
▁need	-7.69219
▁early	-7.69606
▁Most	-7.70304
▁pattern	-7.70654
▁growth	-7.70911
▁make	-7.71306
▁treated	-7.71534
▁show	-7.71544
▁lower	-7.71693
er	-7.72662
▁B	-7.72881
▁damage	-7.72881
▁disorders	-7.74294
▁mutation	-7.74784
▁diagnose	-7.74869
▁spread	-7.75409
▁before	-7.75652
c	-7.75898
l	-7.76445
▁Cancer	-7.77096
▁tumors	-7.77355
▁child	-7.7763
▁radiation	-7.78038
▁However	-7.78751
▁When	-7.78813
▁parts	-7.79965
▁I	-7.80022
▁being	-7.80049
▁impairment	-7.80129
▁tissues	-7.80276
▁lymph	-7.80365
▁affects	-7.80549
▁infections	-7.81051
▁urine	-7.81465
▁research	-7.82326
▁become	-7.83388
▁childhood	-7.83763
▁life	-7.84648
▁chromosome	-7.84691
▁done	-7.84695
▁history	-7.84698
▁treat	-7.84931
▁D	-7.85232
▁bones	-7.86433
▁provider	-7.86957
▁over	-7.8741
linked	-7.8757
▁Tests	-7.87804
▁Short	-7.87836
▁results	-7.88621
▁unknown	-7.88965
▁immune	-7.89175
▁dysplasia	-7.89208
▁control	-7.89824
▁vario	-7.89981
▁short	-7.90251
▁Gene	-7.90421
▁muscles	-7.90976
▁E	-7.91397
▁proteins	-7.92366
▁making	-7.92728
▁organs	-7.93437
▁low	-7.93496
▁important	-7.93618
▁trial	-7.93837
▁weakness	-7.94316
▁long	-7.94591
▁birth	-7.95364
▁medicines	-7.9594
▁T	-7.96194
▁take	-7.96319
▁failure	-7.96835
▁Review	-7.97274
▁back	-7.97798
▁activity	-7.97875
▁physical	-7.98104
▁nerve	-7.9828
▁Your	-7.98304
▁because	-7.98309
▁chemotherapy	-7.98357
▁Mutation	-7.98427
▁years	-7.98701
▁characterized	-7.98871
▁between	-7.99455
▁lung	-8.0098
▁disability	-8.01894
▁vessels	-8.01995
▁anemia	-8.02718
▁vision	-8.02808
▁where	-8.0299
▁women	-8.03028
▁procedure	-8.03142
▁medications	-8.03367
▁They	-8.03563
▁stage	-8.03602
▁likely	-8.03615
▁reduce	-8.03805
S	-8.04022
▁find	-8.05236
▁general	-8.06414
the	-8.06456
▁red	-8.06776
▁Drug	-8.06896
▁diagnosed	-8.07268
▁movement	-8.07779
▁drugs	-8.07836
▁offer	-8.07938
H	-8.08221
ar	-8.0849
▁percent	-8.09142
▁fluid	-8.09748
▁Nation	-8.09867
▁its	-8.10184
▁weight	-8.10608
▁increased	-8.10703
▁within	-8.11144
▁few	-8.11331
▁kidneys	-8.11702
▁chronic	-8.11773
▁instructions	-8.11917
▁Care	-8.11995
▁Diagnostic	-8.12159
▁does	-8.12207
▁3	-8.12474
▁taking	-8.12492
▁much	-8.12493
▁hormone	-8.12638
▁enzyme	-8.13061
o	-8.13635
▁diet	-8.13946
▁several	-8.14345
▁mouth	-8.146
▁Therapy	-8.14941
▁well	-8.15052
▁might	-8.15198
▁involved	-8.16041
▁Disease	-8.16073
▁large	-8.16313
▁standard	-8.16406
▁areas	-8.16523
▁address	-8.16689
▁whether	-8.16856
▁copies	-8.1719
▁glucose	-8.1719
▁lungs	-8.17257
▁side	-8.17269
▁diseases	-8.17448
▁experience	-8.17452
▁hair	-8.17482
in	-8.17555
▁hearing	-8.17743
▁bladder	-8.17807
▁congenital	-8.17895
▁Rehabilitation	-8.18068
B	-8.18279
▁healthy	-8.19011
▁eyes	-8.19109
▁chest	-8.19157
▁bleeding	-8.1943
▁there	-8.19645
▁very	-8.19669
▁present	-8.19942
▁individual	-8.19982
D	-8.20423
▁forms	-8.20566
▁less	-8.20824
▁Counseling	-8.20842
▁neck	-8.21122
▁An	-8.21439
alliative	-8.21455
▁developing	-8.21827
▁mild	-8.21892
▁Patients	-8.22776
▁carry	-8.23282
▁increase	-8.23397
▁appear	-8.23749
▁Many	-8.23973
▁amount	-8.24478
▁seizures	-8.24525
▁helps	-8.2594
3	-8.2604
▁dystrophy	-8.26437
▁needed	-8.26508
ve	-8.26741
▁O	-8.2729
▁cholesterol	-8.28785
▁without	-8.28945
▁Health	-8.29093
▁altered	-8.29387
▁spinal	-8.29793
▁too	-8.30541
▁Blood	-8.30664
▁those	-8.3077
▁stature	-8.30949
▁enough	-8.31352
▁remove	-8.31532
▁primary	-8.31574
▁them	-8.31836
▁5	-8.31979
▁using	-8.32069
▁due	-8.32089
ypoplasia	-8.32143
▁effects	-8.32736
▁mutated	-8.33115
▁tract	-8.33417
p	-8.33837
▁production	-8.33904
▁down	-8.34046
▁under	-8.34084
▁improve	-8.34219
▁what	-8.34525
▁sometimes	-8.35008
▁NCI	-8.35151
▁right	-8.3548
▁patient	-8.355
▁made	-8.35849
ary	-8.36044
▁factor	-8.37138
re	-8.37428
▁so	-8.37436
▁atrophy	-8.37565
▁men	-8.37773
▁Institute	-8.37964
▁same	-8.38017
▁nervous	-8.38018
4	-8.38074
▁parents	-8.38199
▁legs	-8.38243
is	-8.3825
▁G	-8.38452
▁un	-8.38549
▁As	-8.38859
C	-8.38903
▁head	-8.39026
▁process	-8.39054
▁even	-8.39133
▁face	-8.39221
▁testing	-8.39376
▁flow	-8.39866
▁facial	-8.40217
▁p	-8.40395
▁multiple	-8.40404
▁Affected	-8.4075
▁attack	-8.41055
▁oxygen	-8.41095
▁check	-8.41222
r	-8.41762
▁change	-8.41881
▁progressive	-8.42249
▁better	-8.4245
▁given	-8.42545
▁cord	-8.42634
▁familial	-8.42667
▁having	-8.42907
▁work	-8.43189
▁food	-8.43218
▁cannot	-8.43255
id	-8.43685
▁role	-8.44245
▁causing	-8.44405
▁uses	-8.44422
ting	-8.44531
▁adults	-8.44593
▁play	-8.44725
▁Stage	-8.44847
▁around	-8.44856
▁foods	-8.44931
▁particular	-8.45141
n	-8.4602
▁leukemia	-8.46132
▁inflammation	-8.46266
▁inside	-8.4629
▁acid	-8.46311
▁insulin	-8.4657
▁way	-8.46754
▁parent	-8.47107
▁x	-8.47144
▁size	-8.47289
▁ways	-8.47348
out	-8.47381
▁breathing	-8.47432
▁Researchers	-8.47501
▁serious	-8.47737
▁marrow	-8.48094
▁reported	-8.48235
▁4	-8.48257
▁while	-8.48577
▁three	-8.49654
▁exam	-8.49806
▁level	-8.50021
▁breast	-8.50584
▁Syndrome	-8.51198
▁nasal	-8.51552
▁non	-8.51837
▁severity	-8.52228
▁white	-8.52238
▁characteristic	-8.52322
▁months	-8.52435
▁joint	-8.52724
▁area	-8.52865
▁fat	-8.53051
▁intellectual	-8.53415
▁energy	-8.53519
▁abdomen	-8.53981
▁complications	-8.53988
▁iron	-8.54109
▁Heart	-8.54142
on	-8.54472
▁II	-8.54683
▁begin	-8.54736
▁speech	-8.54742
▁tube	-8.5477
m	-8.54888
▁intestine	-8.55252
▁Although	-8.55863
▁DNA	-8.56284
▁stroke	-8.5635
▁To	-8.5639
▁keep	-8.568
▁drug	-8.56845
▁go	-8.56934
edia	-8.56941
▁effective	-8.56945
▁Children	-8.57061
▁nose	-8.57126
▁En	-8.57165
▁see	-8.57276
▁sleep	-8.57343
▁stop	-8.57735
related	-8.57777
▁pregnancy	-8.57849
▁however	-8.58121
▁Abnormal	-8.58244
▁males	-8.58961
▁light	-8.59343
▁5%	-8.59399
▁finger	-8.59519
▁provide	-8.59939
▁vary	-8.59976
th	-8.60092
cyclop	-8.60108
▁arteries	-8.60509
▁V	-8.60645
▁day	-8.60821
▁upper	-8.60992
▁defects	-8.61166
▁F	-8.61427
▁fever	-8.61528
▁stomach	-8.61592
▁teeth	-8.62138
▁High	-8.62505
▁extra	-8.62699
▁older	-8.62837
▁females	-8.63075
▁among	-8.63081
▁identified	-8.63108
▁nodes	-8.63155
lthough	-8.63275
▁Kidney	-8.63658
▁possible	-8.63799
▁Congenital	-8.64357
i	-8.64682
tic	-8.64748
an	-8.65255
▁grow	-8.6526
▁urinary	-8.65634
▁especially	-8.65862
▁major	-8.66052
▁feet	-8.66218
▁R	-8.66475
ation	-8.6683
▁like	-8.66848
▁away	-8.67142
▁biopsy	-8.67199
▁chance	-8.67297
▁require	-8.67451
▁sample	-8.67622
▁studies	-8.67633
▁least	-8.67778
▁skeletal	-8.68279
▁depends	-8.68342
▁palate	-8.68707
▁search	-8.68798
▁c	-8.69273
▁infants	-8.69309
▁eating	-8.69333
▁N	-8.69649
▁hereditary	-8.6986
▁ability	-8.69944
▁depend	-8.70288
▁6	-8.70413
▁sufficient	-8.70423
▁defect	-8.70446
g	-8.7126
▁inherit	-8.71472
▁death	-8.71649
▁hands	-8.72305
▁commonly	-8.72745
▁makes	-8.72913
▁bacteria	-8.73107
▁onset	-8.7324
like	-8.73244
▁ears	-8.73271
▁10	-8.73508
▁families	-8.73754
▁Diabetes	-8.73757
▁movements	-8.73886
▁infancy	-8.73908
▁Clinical	-8.73946
▁lymphoma	-8.73978
▁sugar	-8.7407
es	-8.74675
▁With	-8.74682
▁produce	-8.74692
▁higher	-8.75092
to	-8.75143
▁later	-8.75223
▁receive	-8.76114
▁delay	-8.76178
▁complex	-8.7622
▁stem	-8.77362
▁contain	-8.77395
▁scan	-8.77614
▁imaging	-8.7784
▁swelling	-8.78192
▁Talk	-8.78324
▁abdominal	-8.78598
▁increases	-8.78645
▁nerves	-8.78991
▁artery	-8.79131
▁calcium	-8.79313
▁manner	-8.79457
▁myopathy	-8.79538
▁thyroid	-8.79709
▁medicine	-8.79738
▁Aplasia	-8.79783
q	-8.79929
▁removed	-8.79958
▁hand	-8.80039
▁described	-8.80531
▁ataxia	-8.80546
▁normally	-8.80587
▁location	-8.80605
▁neurological	-8.81483
▁know	-8.81577
up	-8.82085
▁Hav	-8.82091
▁More	-8.8227
▁substances	-8.82511
▁vomiting	-8.82618
▁NIH	-8.82959
▁think	-8.82968
▁active	-8.83747
▁underlying	-8.83787
▁options	-8.8379
▁arms	-8.83809
▁virus	-8.84162
▁abnormality	-8.84301
▁problem	-8.84301
▁cure	-8.84616
▁acute	-8.84834
x	-8.84869
▁every	-8.86027
▁exercise	-8.86063
autoimmune	-8.86204
▁injury	-8.86211
▁smoking	-8.86217
▁respiratory	-8.86376
▁chromosomes	-8.86407
▁ear	-8.86471
▁providers	-8.86696
▁gland	-8.86929
▁deletion	-8.87122
▁neuropathy	-8.87289
▁III	-8.87463
▁difficulty	-8.87512
▁hormones	-8.87647
tellectual	-8.87691
▁anti	-8.87768
u	-8.88328
▁hypoplasia	-8.88725
▁taken	-8.88738
▁episodes	-8.88836
▁plan	-8.89099
▁W	-8.89235
▁beta	-8.89359
ous	-8.89369
▁prostate	-8.89612
▁allow	-8.90146
▁renal	-8.90207
▁glands	-8.90261
▁build	-8.90712
▁lack	-8.90748
▁Low	-8.91024
▁formation	-8.91116
▁water	-8.91162
▁either	-8.91263
▁transplant	-8.91488
▁abnormally	-8.91605
▁thought	-8.91606
▁muscular	-8.91642
▁produced	-8.91657
▁L	-8.9167
til	-8.91878
▁feel	-8.91887
▁baby	-8.91981
▁move	-8.92205
▁diarrhea	-8.92249
▁spreads	-8.92267
▁recurrent	-8.9231
▁adulthood	-8.92993
▁appears	-8.93047
▁website	-8.93054
6	-8.93172
▁Disorders	-8.93507
▁lip	-8.93763
▁range	-8.93887
▁similar	-8.93991
▁organ	-8.9416
▁rate	-8.94241
▁substance	-8.94291
▁considered	-8.94791
▁slow	-8.95044
▁clots	-8.95058
▁suggest	-8.951
▁reduced	-8.95179
T	-8.95298
▁Do	-8.95423
▁stress	-8.95542
▁weeks	-8.95549
▁General	-8.95597
▁sex	-8.95881
▁Individuals	-8.95908
▁colon	-8.95914
▁U	-8.96012
▁vein	-8.9622
▁addition	-8.9628
▁urethra	-8.96404
▁tend	-8.96436
▁unclear	-8.96473
▁Chronic	-8.96667
▁United	-8.96667
▁infected	-8.96746
▁arthritis	-8.97085
▁medication	-8.97396
▁exact	-8.9764
L	-8.98122
▁name	-8.98368
▁was	-8.98503
▁recommend	-8.98629
▁detect	-8.98661
▁IV	-8.99113
▁Seizures	-8.99229
▁motor	-8.99255
▁coronary	-8.99258
▁best	-8.99267
▁Type	-8.99406
▁joints	-8.99656
▁tested	-9.00223
▁adult	-9.00433
▁want	-9.00618
▁located	-9.00657
▁vitamin	-9.00871
▁attacks	-9.01064
▁bile	-9.01224
▁give	-9.01407
▁valve	-9.01415
▁alcohol	-9.01538
▁Radiation	-9.01632
▁spine	-9.01665
▁States	-9.01669
▁main	-9.01914
▁additional	-9.02036
ray	-9.02123
▁days	-9.02359
N	-9.02367
▁combination	-9.02443
term	-9.02492
▁Cognitive	-9.02651
▁pass	-9.02784
▁enlarged	-9.03133
▁hyper	-9.03144
▁then	-9.0322
▁microscope	-9.03269
▁prevalence	-9.03269
▁involves	-9.03867
▁break	-9.04059
▁contact	-9.0431
▁block	-9.04738
▁antibodies	-9.04864
▁carcinoma	-9.04975
▁procedures	-9.05458
▁born	-9.05694
▁don	-9.05871
▁now	-9.06071
ness	-9.06339
▁excess	-9.06633
▁Check	-9.06634
▁structures	-9.06868
▁year	-9.06992
▁working	-9.07027
▁pituitary	-9.07554
▁bowel	-9.07718
sis	-9.07814
▁relieve	-9.07834
▁walking	-9.07862
▁buildup	-9.07944
▁enter	-9.07966
▁developmental	-9.08062
▁adrenal	-9.0813
▁disrupt	-9.08195
▁impair	-9.08208
▁fingers	-9.08289
ized	-9.08394
▁near	-9.08433
G	-9.08617
▁During	-9.08797
▁dehydrogenase	-9.08797
▁15	-9.08811
▁pulmonary	-9.09017
▁prognosis	-9.09456
such	-9.09464
set	-9.09642
▁believe	-9.09675
R	-9.09731
▁treating	-9.09883
▁exposure	-9.09914
▁support	-9.09931
▁continue	-9.10224
▁open	-9.10267
▁hard	-9.10289
▁computer	-9.10568
▁malignant	-9.10615
▁place	-9.10709
▁begins	-9.10793
▁hypotonia	-9.10798
▁About	-9.11007
▁20	-9.11038
▁central	-9.11114
▁eat	-9.11136
▁functions	-9.11706
▁pictures	-9.11712
▁longer	-9.11822
▁Renal	-9.11905
onset	-9.12162
▁amounts	-9.12331
▁Physical	-9.12357
▁bloodstream	-9.12363
▁hospital	-9.12675
▁Neurologic	-9.12843
▁frequently	-9.12898
▁thin	-9.13036
▁special	-9.1311
▁stages	-9.13133
▁See	-9.13357
▁hepatitis	-9.13496
▁properly	-9.13547
▁sodium	-9.13627
b	-9.13715
▁Chemotherapy	-9.13955
▁Childhood	-9.14648
▁bridge	-9.1488
▁determine	-9.14966
▁Recurrent	-9.15112
▁able	-9.15336
▁responsible	-9.15579
▁balance	-9.15605
▁she	-9.1562
▁others	-9.15656
▁must	-9.15814
▁researchers	-9.15824
▁pancreas	-9.15857
▁products	-9.16033
▁structure	-9.16262
▁Lung	-9.16284
▁wall	-9.16438
▁response	-9.16909
▁breath	-9.17167
P	-9.17239
h	-9.17582
▁slowly	-9.17839
threatening	-9.1802
▁molecules	-9.1811
le	-9.18119
most	-9.18181
▁Famili	-9.18186
▁difficulties	-9.1843
▁own	-9.18471
ertain	-9.18532
▁difficult	-9.18825
▁impaired	-9.18855
▁recovery	-9.19668
able	-9.2007
▁After	-9.20125
▁sarcoma	-9.20125
▁outlook	-9.20127
▁spleen	-9.2037
▁Primary	-9.20617
▁delayed	-9.20868
▁fats	-9.2091
ce	-9.21197
▁hours	-9.21267
▁varies	-9.21358
▁fatigue	-9.21487
▁Muscular	-9.21609
▁section	-9.21895
▁poor	-9.22052
▁cavity	-9.22103
logy	-9.22109
▁avoid	-9.22218
▁limbs	-9.22482
▁late	-9.22607
▁signals	-9.22615
▁followed	-9.22749
▁insufficiency	-9.22855
▁safe	-9.23228
▁lifestyle	-9.23361
ion	-9.2337
▁cardiomyopathy	-9.23418
▁times	-9.23589
▁illness	-9.23596
▁material	-9.236
▁New	-9.23612
▁benign	-9.23791
▁tomography	-9.23867
▁paralysis	-9.23891
▁foot	-9.242
▁skull	-9.24376
ive	-9.24635
▁doesn	-9.24645
st	-9.24747
▁recommended	-9.24831
▁kill	-9.24859
▁Decrease	-9.24888
▁follow	-9.24944
▁Diseases	-9.25103
▁studied	-9.25161
▁alpha	-9.25833
▁live	-9.25876
▁air	-9.26126
▁external	-9.26463
▁platelets	-9.26476
▁30	-9.26592
eal	-9.26598
▁rectum	-9.26702
▁current	-9.26883
▁develops	-9.26913
▁environmental	-9.27083
▁acids	-9.2716
▁cysts	-9.27274
▁clear	-9.27381
▁epilepsy	-9.27385
▁dialysis	-9.27489
▁together	-9.2752
▁involve	-9.2757
▁weak	-9.27598
▁soft	-9.27746
▁lining	-9.27754
▁arm	-9.2779
I	-9.2788
▁contribute	-9.27885
▁mental	-9.2796
▁dysfunction	-9.28019
▁signaling	-9.28102
▁began	-9.28283
▁digestive	-9.2829
▁periods	-9.28477
▁degeneration	-9.28574
▁ask	-9.29209
▁ovarian	-9.29367
▁off	-9.29468
▁decrease	-9.2973
▁necessary	-9.30163
▁antibiotics	-9.30165
▁learning	-9.30194
▁half	-9.30204
▁gas	-9.30455
▁dry	-9.30648
▁damaged	-9.30652
▁CT	-9.31232
▁toes	-9.31248
▁Who	-9.31254
▁fatty	-9.31294
▁feeling	-9.31336
▁color	-9.31365
▁frequent	-9.31724
▁currently	-9.31907
▁per	-9.32038
▁starting	-9.32091
▁worse	-9.32302
▁Skin	-9.32348
ll	-9.32452
▁left	-9.32522
▁learn	-9.3259
shaped	-9.32612
▁single	-9.32625
▁nearby	-9.32627
▁distal	-9.32649
▁questions	-9.3267
▁hernia	-9.32703
▁doctors	-9.32888
▁young	-9.32945
▁maintain	-9.33064
F	-9.33224
▁accept	-9.34011
▁Doctor	-9.34022
▁retardation	-9.34033
▁chemical	-9.34125
▁quickly	-9.34323
▁7	-9.34384
▁receptor	-9.34429
▁Long	-9.34587
▁middle	-9.34615
▁lesions	-9.34827
▁trigger	-9.34944
▁linked	-9.34981
▁create	-9.35278
▁home	-9.35567
▁worldwide	-9.35724
▁activities	-9.35746
▁fibrosis	-9.358
▁last	-9.35857
▁sudden	-9.36226
▁order	-9.36273
▁Delay	-9.36298
▁above	-9.36298
▁outside	-9.36318
▁Severe	-9.36419
▁shape	-9.36672
▁identify	-9.36875
▁forehead	-9.37165
▁throat	-9.3718
ultiple	-9.37367
▁cancers	-9.3737
▁needs	-9.37425
▁complete	-9.37466
▁sclerosis	-9.37494
▁raise	-9.37591
▁end	-9.37631
▁limb	-9.37754
▁electrical	-9.37777
rich	-9.37843
▁start	-9.38565
▁Stroke	-9.38627
just	-9.38769
ate	-9.38904
▁injected	-9.38944
▁myelo	-9.39032
▁moderate	-9.39244
supported	-9.39267
▁malformation	-9.3968
▁male	-9.39712
▁close	-9.39797
▁could	-9.39812
▁Even	-9.39812
ereditary	-9.40092
▁milk	-9.40111
▁completely	-9.40219
▁Cerebr	-9.4039
▁retina	-9.40408
▁repeated	-9.40647
gastrointestinal	-9.40712
▁While	-9.41012
▁storage	-9.41012
▁members	-9.41268
▁cirrhosis	-9.41391
▁Ke	-9.41567
▁m	-9.41605
▁node	-9.41612
▁Failure	-9.41617
▁presence	-9.41617
▁missing	-9.41617
▁pregnant	-9.41921
▁come	-9.41924
E	-9.41978
▁removal	-9.41981
▁vessel	-9.4217
hether	-9.42214
▁yet	-9.42269
▁nausea	-9.42531
▁surgical	-9.42548
▁shown	-9.42648
▁smoke	-9.42933
▁rest	-9.42946
▁protect	-9.42977
left	-9.43201
cancer	-9.43246
▁surface	-9.43347
▁still	-9.43453
▁essential	-9.43455
producing	-9.43459
▁cold	-9.4346
▁travels	-9.43464
▁overweight	-9.43479
▁trouble	-9.43764
▁Point	-9.43856
▁Hyper	-9.44116
▁good	-9.44513
▁stool	-9.4461
▁worsen	-9.44659
▁transport	-9.4481
▁al	-9.44936
▁tone	-9.45002
▁functional	-9.45012
▁variety	-9.45012
▁appearance	-9.45017
▁shortage	-9.45028
▁But	-9.4508
▁detail	-9.45238
pproximately	-9.45575
▁Tumors	-9.45583
▁asthma	-9.45658
▁pneumonia	-9.45683
▁cleft	-9.45887
▁potential	-9.45959
▁prescribe	-9.45996
▁oral	-9.46038
▁center	-9.46205
ability	-9.46554
▁intestinal	-9.46618
▁perform	-9.46892
▁lose	-9.46939
▁50	-9.4709
▁mitochondri	-9.47189
▁professional	-9.47502
▁Progressive	-9.47557
▁past	-9.48019
▁die	-9.48061
▁cardiac	-9.4809
▁dystonia	-9.48151
▁region	-9.48187
▁Women	-9.48202
▁h	-9.48204
▁release	-9.4838
▁sound	-9.48479
▁refine	-9.48527
▁gain	-9.48581
▁night	-9.48609
7	-9.48662
▁inner	-9.48736
▁unusual	-9.48747
▁MRI	-9.488
▁picture	-9.48807
▁Microcephaly	-9.48857
▁hemoglobin	-9.4887
▁ribs	-9.48903
▁talk	-9.49192
▁interfere	-9.492
▁juvenile	-9.49204
▁stenosis	-9.49226
▁opening	-9.49255
ia	-9.49295
▁decreased	-9.49476
▁Bone	-9.49549
▁veins	-9.49611
ach	-9.49666
0	-9.49737
cutaneous	-9.49816
▁uterus	-9.49836
rimarily	-9.49836
▁growing	-9.49852
▁measure	-9.4993
▁leg	-9.50135
▁drink	-9.50149
ortic	-9.50186
itis	-9.50204
▁Increase	-9.50497
▁Over	-9.50513
▁sexual	-9.50751
▁potassium	-9.5093
▁Information	-9.51163
▁waves	-9.5123
▁larger	-9.51249
▁d	-9.51258
▁rash	-9.51325
▁stiffness	-9.51501
▁swallowing	-9.51562
▁Anemia	-9.51838
▁progression	-9.51839
▁survive	-9.5217
▁persons	-9.52244
▁skills	-9.52248
ity	-9.52479
▁sperm	-9.52484
Summary	-9.52507
▁country	-9.52513
▁internal	-9.52664
▁machine	-9.52835
▁woman	-9.52846
▁salt	-9.53031
▁dye	-9.53187
▁gets	-9.53237
▁stones	-9.53285
▁passed	-9.53462
▁resistance	-9.53528
▁cough	-9.53557
▁extreme	-9.53557
also	-9.53633
um	-9.53672
▁neurons	-9.5374
▁One	-9.53806
▁acquired	-9.53961
▁unusually	-9.54038
▁little	-9.54214
▁series	-9.54214
▁distinctive	-9.54217
▁germ	-9.54218
▁broken	-9.5424
w	-9.54583
▁feeding	-9.54667
▁ultrasound	-9.5469
▁fibers	-9.55097
▁Scoliosis	-9.55252
▁cartilage	-9.55252
▁laboratory	-9.55252
▁device	-9.5527
▁visual	-9.55307
oint	-9.55454
▁he	-9.55549
▁therapies	-9.55601
▁thrive	-9.55601
▁Follow	-9.55601
▁clotting	-9.5565
▁Hear	-9.55884
▁Lymph	-9.55923
▁Studies	-9.5595
▁babies	-9.5595
▁resonance	-9.5595
▁isolated	-9.56016
▁depression	-9.56301
▁Option	-9.56301
▁Cell	-9.56381
▁ages	-9.56491
K	-9.56701
▁needle	-9.56832
▁supplements	-9.56874
▁earlier	-9.5701
▁Early	-9.57019
▁checked	-9.57125
▁specialize	-9.57176
▁respond	-9.57433
M	-9.5762
▁excessive	-9.57625
-1	-9.57715
▁daily	-9.57718
▁behavior	-9.5783
▁inflammatory	-9.58045
▁against	-9.58078
▁directly	-9.58146
▁widely	-9.58172
▁dental	-9.58211
▁performed	-9.5824
▁regular	-9.58315
▁Non	-9.58381
▁four	-9.58485
▁sept	-9.58555
▁refer	-9.58566
9	-9.58639
▁incontinence	-9.58815
▁Research	-9.59173
▁metabolic	-9.592
▁exposed	-9.59223
▁40	-9.59392
▁Spin	-9.59412
▁regulate	-9.59447
▁adolescence	-9.59516
▁mellitus	-9.59516
▁penis	-9.59516
▁tongue	-9.59595
▁corneal	-9.59657
V	-9.59701
en	-9.59752
▁viral	-9.59927
▁fast	-9.60317
▁female	-9.60318
de	-9.60365
▁examine	-9.60541
▁Muscle	-9.6061
▁seem	-9.61034
▁shows	-9.61146
ulmonary	-9.61162
▁radioactiv	-9.61174
▁CHD	-9.61251
▁apparent	-9.61347
▁front	-9.61382
▁sensory	-9.61444
▁accumulation	-9.61498
▁rarely	-9.61553
▁Parkinson	-9.61562
▁narrow	-9.6158
▁rapid	-9.61643
▁morpho	-9.61718
▁Leukemia	-9.61718
▁layer	-9.6186
▁American	-9.61878
12	-9.61893
▁human	-9.61904
▁Acute	-9.62089
▁obesity	-9.62104
▁painful	-9.62122
▁Risk	-9.62143
▁repair	-9.62312
▁million	-9.62463
▁future	-9.62837
▁Also	-9.62837
▁He	-9.62839
▁patches	-9.6284
▁period	-9.62851
▁hemolytic	-9.62864
cystic	-9.62898
▁Small	-9.62933
▁malformations	-9.63003
▁literature	-9.63213
▁Narrow	-9.63216
▁along	-9.6323
▁esophagus	-9.6323
▁Smoking	-9.6359
▁why	-9.63591
▁infantile	-9.63713
▁stay	-9.63743
at	-9.63758
▁team	-9.63971
▁Reduced	-9.64011
▁Adult	-9.64083
▁At	-9.64118
▁trans	-9.64346
▁plaque	-9.6446
▁fight	-9.64477
volving	-9.64731
▁Treatments	-9.6495
▁groups	-9.65112
▁Broad	-9.65117
▁mitochondria	-9.65214
▁carrier	-9.65304
▁destroy	-9.6535
▁wide	-9.6566
▁confirm	-9.65736
espiratory	-9.65883
▁distinguish	-9.65885
▁bodies	-9.65886
▁illnesses	-9.65912
less	-9.66051
▁Wide	-9.66172
▁minutes	-9.66608
k	-9.66727
▁acidosis	-9.66798
▁clot	-9.66817
▁trauma	-9.66823
▁mother	-9.66841
▁fluids	-9.669
▁deep	-9.66974
▁placed	-9.67028
▁account	-9.67052
▁unable	-9.67089
CoA	-9.67137
▁coordination	-9.67153
▁goal	-9.67266
ul	-9.67303
est	-9.67391
▁discomfort	-9.67445
▁breakdown	-9.67446
▁anus	-9.67543
▁catheter	-9.67626
thing	-9.67687
▁injuries	-9.67838
▁Rarely	-9.67855
▁limited	-9.68036
▁week	-9.68081
▁her	-9.6813
▁collagen	-9.68233
▁pelvis	-9.68233
▁involuntary	-9.68295
▁happens	-9.68332
▁magnet	-9.68399
▁mean	-9.6847
▁absence	-9.68568
▁Cataract	-9.6863
▁callosum	-9.6863
chance	-9.68706
associated	-9.68718
▁try	-9.6873
▁surgeon	-9.68789
ry	-9.68818
▁paraplegia	-9.68848
▁send	-9.6898
▁summary	-9.69028
▁carries	-9.69029
▁atresia	-9.69044
who	-9.69116
▁always	-9.69156
▁membrane	-9.69216
▁60	-9.69455
▁jaw	-9.69544
▁temperature	-9.69594
▁permanent	-9.69725
▁metabolism	-9.69874
▁nev	-9.6995
▁cerebral	-9.7001
▁greater	-9.70272
▁toxic	-9.70456
▁peripheral	-9.70561
▁congenita	-9.70595
▁sure	-9.70736
and	-9.70826
▁syndactyly	-9.71204
▁palsy	-9.71453
▁count	-9.71496
▁neuro	-9.71526
▁12	-9.71606
▁hypertension	-9.71627
▁systemic	-9.71701
genic	-9.71708
▁usual	-9.71757
▁blocks	-9.71815
▁antibody	-9.71863
▁tell	-9.71867
▁hyperplasia	-9.71902
▁received	-9.71996
▁choice	-9.72067
▁9	-9.72113
▁preventing	-9.72127
▁site	-9.72237
▁intolerance	-9.72274
▁measures	-9.7232
▁duct	-9.72477
▁population	-9.72487
connective	-9.72616
cell	-9.72647
ypertelorism	-9.72669
▁puberty	-9.72687
▁corpus	-9.72746
ine	-9.72788
ebral	-9.72857
▁NINDS	-9.729
ol	-9.73109
▁filter	-9.73226
▁retinal	-9.73337
▁irregular	-9.73608
▁deafness	-9.73641
▁easily	-9.73937
▁spastic	-9.73952
▁alone	-9.74366
▁smaller	-9.74444
▁chemicals	-9.74659
▁case	-9.74682
▁reproducti	-9.7476
▁melanoma	-9.74863
▁nutrients	-9.74874
▁dementia	-9.75022
▁blockage	-9.75024
▁de	-9.7507
▁Additional	-9.75097
▁No	-9.75172
▁course	-9.75203
▁elevated	-9.75234
▁language	-9.75235
▁idiopathic	-9.75321
▁All	-9.75333
▁headaches	-9.75333
▁enzymes	-9.75713
▁airways	-9.75841
▁Test	-9.76044
▁colitis	-9.76056
▁viruses	-9.76101
▁target	-9.7631
oid	-9.7647
parathyroidism	-9.76485
▁Brachydactyly	-9.76485
▁Ventricul	-9.76485
▁critical	-9.76486
ur	-9.76914
▁absent	-9.76978
▁pump	-9.77055
▁heartbeat	-9.77185
▁systems	-9.77265
▁mineral	-9.77267
▁term	-9.77294
▁Spastic	-9.77342
isual	-9.77343
▁intestines	-9.77351
▁prevention	-9.77466
coming	-9.77629
▁kinase	-9.77652
▁COL	-9.77817
▁deposits	-9.77999
▁quit	-9.78196
▁describe	-9.78524
▁remain	-9.78639
▁Weight	-9.78659
▁once	-9.78882
▁run	-9.79071
▁phalan	-9.79097
▁further	-9.791
▁supportive	-9.79122
▁b	-9.792
▁lab	-9.7922
▁GI	-9.79456
▁Nystagmus	-9.79542
▁Crohn	-9.79558
▁remains	-9.7969
▁walk	-9.79702
▁hypoglycemia	-9.79799
trabismus	-9.7984
▁headache	-9.79851
▁gestation	-9.79987
▁tiny	-9.79987
▁Problems	-9.80008
▁newborns	-9.80019
▁images	-9.80112
▁t	-9.80292
▁Medicines	-9.80364
▁video	-9.80433
▁bacterial	-9.80558
▁suggests	-9.80602
▁polydactyly	-9.80606
▁ducts	-9.80649
nt	-9.80735
▁reaction	-9.80757
NIDDK	-9.80882
▁office	-9.80883
▁replacement	-9.80903
O	-9.81195
▁follows	-9.81328
▁staging	-9.81332
▁imperfecta	-9.81334
▁Optic	-9.81362
▁philtrum	-9.81483
▁put	-9.81501
▁his	-9.81709
▁hip	-9.81778
ww	-9.81791
nother	-9.8181
▁goes	-9.81847
▁correct	-9.81972
▁turn	-9.82082
▁vertebra	-9.82145
▁examination	-9.82242
▁happen	-9.82259
▁rotated	-9.82298
gov	-9.82359
▁f	-9.8238
mutations	-9.82425
referred	-9.825
▁blocked	-9.82562
▁thumb	-9.82579
▁meat	-9.82666
▁local	-9.82685
▁division	-9.82696
▁shock	-9.82724
1,	-9.82961
ra	-9.82975
▁carriers	-9.83002
▁tremor	-9.83141
▁mobility	-9.83154
▁parathyroid	-9.83155
▁combined	-9.83206
▁habits	-9.8321
▁optic	-9.83458
▁sensation	-9.83509
▁progresses	-9.83632
▁tubes	-9.83638
▁ovaries	-9.83681
▁building	-9.83947
▁eyebrow	-9.83975
osis	-9.84038
▁things	-9.84092
▁pseudo	-9.84127
▁suspected	-9.84205
▁density	-9.84355
▁behavioral	-9.84525
▁blindness	-9.84546
▁protective	-9.84558
z	-9.84748
come	-9.84839
▁prescribed	-9.84859
▁proper	-9.84905
iac	-9.85238
▁reason	-9.85374
▁full	-9.85389
▁Target	-9.8548
▁probabl	-9.8548
▁harmful	-9.85483
▁numbness	-9.85483
▁Hodgkin	-9.85517
▁cyst	-9.85756
▁genitalia	-9.85958
▁call	-9.85958
▁pelvic	-9.86008
▁metastatic	-9.8606
▁PD	-9.86174
▁Pain	-9.86417
▁supports	-9.86727
▁Prominen	-9.86912
▁younger	-9.86978
▁vegetables	-9.86984
▁reach	-9.87158
▁3-	-9.87165
▁memory	-9.8738
▁Prevention	-9.87387
▁platelet	-9.87458
▁nutrition	-9.87552
▁Urin	-9.87554
▁estrogen	-9.87913
▁severely	-9.88239
icular	-9.88239
▁fractures	-9.88304
▁obese	-9.88344
▁calories	-9.88453
▁links	-9.88516
▁steps	-9.88656
▁laboratories	-9.8883
▁anxiety	-9.88877
▁focuse	-9.88904
ryptorchidism	-9.89001
▁alter	-9.89107
▁11	-9.8913
▁drinking	-9.89292
▁Breast	-9.89317
▁Ataxia	-9.89318
▁Distal	-9.89318
▁eventually	-9.8933
▁regions	-9.89398
▁view	-9.89546
▁eggs	-9.89609
▁social	-9.89805
▁Common	-9.89808
▁sporadic	-9.89811
▁flu	-9.89877
▁Less	-9.89909
▁HIV	-9.89952
▁intake	-9.90032
dose	-9.90256
▁lens	-9.90282
▁lupus	-9.903
▁recurring	-9.903
▁SLC	-9.90308
▁conduct	-9.90626
▁secondary	-9.90633
▁liquid	-9.90758
▁gallbladder	-9.90796
▁breathe	-9.91267
ince	-9.91422
▁walls	-9.91465
):	-9.9149
▁(1	-9.91581
uvenile	-9.91792
▁Scientists	-9.91793
▁spectrum	-9.91794
▁Skelet	-9.91839
▁strength	-9.9184
▁takes	-9.92003
▁bodys	-9.9228
▁Depress	-9.92285
▁dizziness	-9.92295
▁Fever	-9.92301
▁waste	-9.92301
▁apnea	-9.9235
▁travel	-9.92464
▁anesthesia	-9.92665
▁thick	-9.92777
▁smell	-9.92786
▁progress	-9.92953
facial	-9.92974
▁Learn	-9.93308
▁instead	-9.93308
▁relative	-9.93324
▁limit	-9.93339
▁someone	-9.9337
▁voice	-9.93374
▁Elevat	-9.93439
▁increasing	-9.93446
▁HDL	-9.93451
▁though	-9.93722
ensorineural	-9.93801
▁finding	-9.93817
▁hemochromatosis	-9.93818
▁partial	-9.93845
▁average	-9.93926
▁ray	-9.94035
spinal	-9.9424
▁doses	-9.94278
▁spots	-9.94281
▁answer	-9.94332
▁wear	-9.9435
▁Tal	-9.94367
▁cornea	-9.94444
▁screening	-9.94479
▁re	-9.94507
▁attach	-9.94518
am	-9.94587
▁would	-9.94847
▁scarring	-9.94848
▁glycogen	-9.94848
▁understand	-9.95051
mainly	-9.95096
▁sinus	-9.95339
▁serum	-9.95366
▁tired	-9.95373
▁colorectal	-9.95385
▁soon	-9.95414
▁fusion	-9.95481
f	-9.95528
▁formed	-9.95622
me	-9.95705
▁Control	-9.95757
te	-9.95783
beta	-9.95812
▁chromosomal	-9.95886
▁vascular	-9.9629
▁migraine	-9.96424
▁encephalopathy	-9.96548
▁places	-9.96727
▁Sever	-9.96728
ocerebellar	-9.96922
▁African	-9.96943
▁separate	-9.97168
▁relax	-9.97292
nuclear	-9.97295
▁direct	-9.9733
▁aorta	-9.97465
▁symptomatic	-9.97467
▁cancerous	-9.97475
▁position	-9.97521
▁Insulin	-9.9796
▁Growth	-9.97996
▁technician	-9.97996
▁maturation	-9.97997
▁functioning	-9.98005
▁visit	-9.98246
▁Men	-9.98282
▁poly	-9.98294
▁Institutes	-9.98333
▁CNS	-9.98362
▁rule	-9.98466
11	-9.98507
▁constipation	-9.98531
▁foreign	-9.98531
▁0	-9.98751
axi	-9.98751
Hodgkin	-9.99026
▁unaffected	-9.99069
▁vitamins	-9.99112
▁Loss	-9.9917
▁w	-9.99241
▁hepatic	-9.9926
▁produces	-9.99389
▁endocrine	-9.99411
▁vagina	-9.99566
hypotonia	-9.99575
▁mass	-9.99582
▁bullosa	-9.99609
▁incidence	-9.99609
▁Liver	-9.99611
▁valves	-9.99637
pian	-9.99653
▁benefit	-9.99666
bi	-9.99672
▁surrounding	-9.99681
▁TB	-9.99706
▁connect	-9.99713
▁Y	-9.99976
▁suspect	-10
▁fiber	-10.0004
▁absorb	-10.0005
▁fetal	-10.0013
▁matter	-10.0015
▁microdeletion	-10.0015
▁External	-10.0015
▁urination	-10.0019
▁samples	-10.0019
▁inserted	-10.0021
▁forward	-10.0021
▁Changes	-10.0024
▁embryon	-10.0031
▁replace	-10.0049
▁Limit	-10.0055
ck	-10.0069
▁itself	-10.0071
▁old	-10.0071
▁greatly	-10.0076
metaphyse	-10.0076
▁Medicare	-10.0077
▁man	-10.0078
▁Infants	-10.008
00,000	-10.0089
▁controls	-10.0091
immunodeficiency	-10.0093
▁Americans	-10.0121
▁appetite	-10.0125
▁lactose	-10.0125
▁fruits	-10.0151
▁swollen	-10.0182
▁rheumato	-10.019
▁vaccine	-10.0191
▁nail	-10.02
▁Food	-10.021
▁membranes	-10.0212
▁simple	-10.0212
▁acidemia	-10.0236
▁mucus	-10.0239
os	-10.024
opharynge	-10.024
▁Al	-10.0243
▁disturbance	-10.0244
▁reasons	-10.0246
▁obstruction	-10.0246
▁quality	-10.0246
▁contracture	-10.0248
▁Intra	-10.0271
▁Charcot	-10.0292
▁scalp	-10.0292
▁outpatient	-10.0292
▁transplantation	-10.0297
▁topic	-10.0298
▁piece	-10.0301
▁Re	-10.0329
▁corticosteroids	-10.0339
rays	-10.0346
ch	-10.035
▁specialist	-10.0358
▁Not	-10.0362
▁specialized	-10.0384
▁22	-10.0404
Marie	-10.0404
▁regulation	-10.0405
uterine	-10.0405
Too	-10.0406
▁Diagnosis	-10.0407
▁coloboma	-10.0409
ventricular	-10.0414
▁inhibitors	-10.0417
▁divided	-10.0418
▁osteoporosis	-10.0422
▁dose	-10.0424
▁emergency	-10.0461
▁obtain	-10.0461
▁pathologist	-10.0461
▁Both	-10.0461
▁bas	-10.0462
▁rhythm	-10.0462
ri	-10.0465
▁egg	-10.0483
▁milder	-10.0489
▁here	-10.0497
▁cortisol	-10.0518
▁metacarpal	-10.0518
▁understood	-10.0518
hydroxylase	-10.0519
▁duplication	-10.0524
▁isn	-10.0526
▁cystic	-10.0528
▁scans	-10.0541
▁started	-10.0547
ment	-10.0557
▁space	-10.0567
▁dark	-10.0571
▁Infantile	-10.0576
▁sensitivity	-10.0576
▁across	-10.0576
▁association	-10.0577
▁gait	-10.0582
▁today	-10.0582
▁glaucoma	-10.0584
▁member	-10.0589
▁attention	-10.0627
▁System	-10.0633
▁cerebellum	-10.0633
▁gotten	-10.0633
▁Normally	-10.0638
▁peritone	-10.064
yl	-10.065
▁manage	-10.0651
▁LDL	-10.0657
▁thalassemia	-10.0675
U	-10.0684
▁fetus	-10.069
▁Peripheral	-10.0692
▁prolonged	-10.0694
▁gradually	-10.0696
inflammatory	-10.0696
lon	-10.0706
mous	-10.0713
▁controll	-10.0714
▁required	-10.072
▁fatal	-10.0724
ipes	-10.0744
▁sick	-10.0746
risk	-10.0756
▁cognitive	-10.0756
▁restore	-10.0787
▁remaining	-10.0792
▁25%	-10.0815
▁hemorrhage	-10.0815
▁cerebro	-10.0816
▁Alzheimer	-10.0824
▁eyelids	-10.0825
thrombocytopenia	-10.0836
it	-10.0839
▁Approximately	-10.0841
▁base	-10.0866
▁sores	-10.0869
▁Frontal	-10.0869
▁neonatal	-10.0871
▁radio	-10.0896
▁Hypoplastic	-10.0928
▁beginning	-10.0928
▁Retin	-10.0929
▁EKG	-10.0934
▁FA	-10.0939
▁painless	-10.0939
▁Pre	-10.097
X	-10.0977
▁premature	-10.0983
▁Autoimmune	-10.0987
▁recurred	-10.0988
▁cilia	-10.0989
healthy	-10.0996
▁plasma	-10.0998
▁developed	-10.0999
▁Chest	-10.1004
▁accumulate	-10.1005
▁CKD	-10.1013
ver	-10.1016
epatomegaly	-10.1028
▁released	-10.103
▁collect	-10.1038
▁Limb	-10.1048
▁fingernails	-10.1048
▁keratoderma	-10.1048
▁broad	-10.1048
oencephalopathy	-10.105
▁Ptosis	-10.105
find	-10.1057
▁component	-10.1066
▁animals	-10.1068
▁tri	-10.1071
▁genital	-10.1079
▁Un	-10.108
▁spasms	-10.1081
linodactyly	-10.1085
▁significant	-10.1098
▁breaks	-10.1104
proliferative	-10.1105
▁Facial	-10.1108
▁Central	-10.1111
▁dysostosis	-10.1111
▁cerebellar	-10.1113
CT	-10.1114
MRI	-10.1118
▁harm	-10.1121
▁molecule	-10.113
ial	-10.1132
▁monitor	-10.1146
▁changed	-10.1161
▁living	-10.1172
▁fully	-10.118
▁scar	-10.1188
▁injection	-10.1189
▁mg	-10.1191
▁lymphocytes	-10.1195
▁article	-10.1209
ter	-10.1217
▁recover	-10.1223
▁reflux	-10.1231
▁Us	-10.1236
▁lice	-10.1244
▁sun	-10.1259
▁lasts	-10.1267
▁traits	-10.1274
ase	-10.1283
▁Sleep	-10.1292
▁tubular	-10.1292
▁evidence	-10.1292
esophag	-10.1304
uric	-10.1306
▁200	-10.1307
as	-10.1311
▁Any	-10.1347
▁Often	-10.1355
▁kinds	-10.1368
▁Myelo	-10.1376
▁triggers	-10.1393
▁step	-10.14
2,	-10.141
▁supply	-10.1417
▁aciduria	-10.1419
▁Cushing	-10.1421
▁helpful	-10.1424
▁rapidly	-10.1435
▁SCA	-10.1439
ies	-10.1442
▁clearly	-10.1442
▁click	-10.1449
▁macular	-10.1481
▁third	-10.1519
▁entire	-10.1532
▁analysis	-10.1543
▁taste	-10.1543
▁stored	-10.1556
▁Medications	-10.1557
▁Lower	-10.1559
▁donor	-10.1561
▁Poly	-10.1565
▁palm	-10.1568
▁starts	-10.1574
▁environment	-10.1579
▁Obesity	-10.1607
▁Two	-10.1607
▁sitting	-10.1608
▁palp	-10.1611
▁set	-10.1614
▁centimeters	-10.1616
▁knees	-10.1622
▁aneurysm	-10.1638
li	-10.1642
▁reduc	-10.1663
▁Camptodactyly	-10.1671
▁flexible	-10.1671
▁laser	-10.1671
▁prominent	-10.1671
▁overgrowth	-10.1672
▁consist	-10.1674
▁angina	-10.1676
▁amino	-10.1681
Relat	-10.1686
▁effect	-10.1697
▁Adults	-10.1716
▁Cerebellar	-10.1735
▁Overview	-10.1735
▁bossing	-10.1735
▁untreated	-10.1735
▁version	-10.1735
▁else	-10.1736
▁microcephaly	-10.1741
▁intravenous	-10.1743
▁removes	-10.1745
ready	-10.1752
▁flatten	-10.1786
la	-10.1788
arotid	-10.1798
ell	-10.1801
▁works	-10.1802
▁posteriorly	-10.1806
▁healthcare	-10.1807
▁hips	-10.1818
▁reactions	-10.1819
ated	-10.1821
▁heat	-10.1824
igestive	-10.1829
▁atypical	-10.184
▁cataract	-10.1849
▁routine	-10.1855
▁return	-10.1861
▁eliminate	-10.1863
il	-10.1866
▁wastes	-10.1868
▁drinks	-10.1873
▁channels	-10.1877
called	-10.1885
ah	-10.1886
▁controlled	-10.1891
▁cel	-10.1929
mann	-10.1931
▁disabilities	-10.1932
▁Post	-10.1932
▁segment	-10.1936
picanthus	-10.1937
▁fallo	-10.1938
▁14	-10.1941
free	-10.1951
counter	-10.1955
▁transmit	-10.1956
▁Neoplasm	-10.196
▁Rh	-10.1963
▁Gai	-10.1965
▁endometrial	-10.1998
▁Absent	-10.1998
▁reduction	-10.1998
▁retrieve	-10.2016
▁genetics	-10.2019
▁nephro	-10.2022
▁cycle	-10.2025
▁Infections	-10.2028
▁pathway	-10.2028
▁16	-10.2028
▁lumps	-10.2029
▁sense	-10.2032
▁variant	-10.2032
▁pigment	-10.2034
bdominal	-10.2046
▁Hypertension	-10.2064
▁roof	-10.2065
▁dehydration	-10.2069
▁Dry	-10.2072
▁tooth	-10.2077
▁grows	-10.2081
ng	-10.2082
▁ongoing	-10.21
ent	-10.2104
▁understanding	-10.2105
▁70	-10.2117
ph	-10.2118
▁lot	-10.2123
▁natural	-10.2125
▁appropriate	-10.2126
▁devices	-10.2128
▁Diarrhea	-10.2132
▁Mitochondria	-10.2132
▁classified	-10.2134
▁underdeveloped	-10.2136
▁advanced	-10.2137
lers	-10.2159
▁dislocation	-10.2163
▁state	-10.2166
▁attached	-10.2168
▁patterns	-10.2173
v	-10.2177
▁eyelashes	-10.2199
▁Examples	-10.2199
▁lost	-10.2199
▁Diet	-10.22
▁whole	-10.22
▁susceptibility	-10.22
om	-10.2204
▁stimulate	-10.2206
ataxia	-10.2223
(	-10.2223
▁Corne	-10.2228
▁Center	-10.2235
▁ulcers	-10.2241
▁Alzheimers	-10.2249
▁consider	-10.225
▁emotional	-10.2259
Danlos	-10.2267
▁Marfan	-10.2267
▁urinate	-10.2267
▁temporary	-10.2267
▁groin	-10.2268
▁Lymphoma	-10.2269
▁itching	-10.2273
▁pigmentation	-10.2282
▁airway	-10.2302
for	-10.2326
▁ulcer	-10.2335
▁Arthritis	-10.2336
▁Hydrocephalus	-10.2336
▁Malignan	-10.2336
▁next	-10.2336
11.2	-10.234
▁Eh	-10.2346
▁significantly	-10.2348
▁BMI	-10.2358
side	-10.237
▁listing	-10.2375
▁Malar	-10.2404
▁Hospital	-10.2405
▁Ovarian	-10.2405
▁dietitian	-10.2405
▁hypothyroidism	-10.2414
voiding	-10.242
▁sensitive	-10.2436
▁g	-10.2439
▁infant	-10.2441
▁specialists	-10.2462
▁Parasites	-10.2474
▁decline	-10.2474
uch	-10.2475
▁personal	-10.2476
▁classic	-10.2486
▁Causes	-10.2492
▁wasting	-10.2501
▁Tak	-10.2509
▁lump	-10.2518
▁detected	-10.2527
▁Others	-10.2529
ite	-10.2532
▁Different	-10.2544
▁minor	-10.2544
▁heavy	-10.2544
▁trisomy	-10.2544
▁Eye	-10.2544
▁line	-10.2547
▁curvature	-10.2547
▁findings	-10.2547
venous	-10.2549
▁initial	-10.2564
▁Infection	-10.2583
ne	-10.2606
▁Thin	-10.2607
▁Down	-10.261
▁albumin	-10.2614
▁Hepatitis	-10.2614
▁Pect	-10.2614
▁vermilion	-10.2614
▁Splenomegaly	-10.2614
▁everyone	-10.2616
▁aspirin	-10.2616
▁17	-10.2626
▁sons	-10.2631
▁ended	-10.2651
▁outer	-10.2654
▁Kaposi	-10.2685
▁http	-10.2685
▁retinopathy	-10.2685
▁mature	-10.2685
://	-10.2686
▁hot	-10.2695
ative	-10.2702
▁AIDS	-10.2744
▁height	-10.2757
▁Macrocephaly	-10.2757
▁overall	-10.2757
▁lifetime	-10.2758
▁five	-10.2759
▁GM	-10.2761
▁experts	-10.2765
▁anal	-10.2767
▁processes	-10.2769
▁Use	-10.2771
▁polyps	-10.2772
▁cramps	-10.2774
im	-10.2785
son	-10.2789
▁ends	-10.2794
▁phase	-10.2797
▁hold	-10.2797
her	-10.2809
ac	-10.2824
▁fragile	-10.2829
▁13	-10.2829
▁scientists	-10.2832
13	-10.2833
▁anterior	-10.2834
ger	-10.284
▁remission	-10.284
▁HLA	-10.2858
▁uncontroll	-10.2859
▁scoliosis	-10.2898
▁arteriosus	-10.2901
ler	-10.2902
trial	-10.2904
▁menstrual	-10.2905
gen	-10.2911
▁trunk	-10.2918
oronary	-10.2925
▁autonomic	-10.293
Barr	-10.2933
mo	-10.2938
▁Centers	-10.2938
ro	-10.294
▁risks	-10.2942
▁effectively	-10.296
▁Web	-10.2969
▁sides	-10.2972
▁self	-10.2975
▁prescription	-10.2977
▁fall	-10.2978
▁rays	-10.2978
▁nevus	-10.2986
▁phosphate	-10.3005
▁event	-10.3008
▁90	-10.3009
▁forming	-10.3018
▁source	-10.3018
▁100	-10.3028
▁Brain	-10.3041
▁vertebrae	-10.3044
▁Premature	-10.3048
▁anomalies	-10.3048
▁synostosis	-10.3048
▁ions	-10.3049
▁lie	-10.305
ig	-10.3052
▁generalized	-10.3062
▁Additionally	-10.3066
▁MPS	-10.3067
1-	-10.307
▁cranial	-10.3071
▁agents	-10.3083
NINDS	-10.3084
▁testes	-10.3084
which	-10.3084
▁ankles	-10.3089
ke	-10.3104
▁moving	-10.3122
▁ultimately	-10.3122
▁Feed	-10.3129
▁Ant	-10.3131
ctually	-10.3131
▁dilated	-10.3133
▁post	-10.3134
ma	-10.3136
▁flat	-10.3143
age	-10.3156
genesis	-10.3162
▁program	-10.3168
▁epiphyse	-10.3193
▁deformities	-10.3196
▁deterioration	-10.3196
▁amyloidosis	-10.3201
▁mid	-10.3202
▁removing	-10.3206
▁ductus	-10.3208
▁characteristics	-10.3215
▁covering	-10.3216
▁performs	-10.3221
▁Oral	-10.3222
▁confusion	-10.3223
der	-10.3228
dependent	-10.3234
▁fistula	-10.3243
▁goals	-10.3244
▁calcification	-10.3252
▁transfusions	-10.3265
giving	-10.3269
gastric	-10.3272
▁retention	-10.3272
▁bilirubin	-10.3274
▁contract	-10.3279
▁atherosclerosis	-10.3283
▁PET	-10.3288
ta	-10.3291
oma	-10.3293
▁ureter	-10.33
▁link	-10.3306
ions	-10.3316
▁speak	-10.3316
0,000	-10.3319
▁K	-10.3324
▁positive	-10.3339
▁prediabetes	-10.3347
▁myelin	-10.3348
▁slightly	-10.335
everted	-10.335
▁Spar	-10.3351
▁Hypertoni	-10.3351
line	-10.3353
▁burning	-10.3356
▁yellow	-10.337
▁reduces	-10.3378
el	-10.3389
▁porphyria	-10.3396
salivary	-10.3407
▁gums	-10.3414
▁lives	-10.342
▁structural	-10.3424
▁promote	-10.3424
▁dyskinesia	-10.3424
▁plus	-10.3424
▁stroma	-10.3424
▁Avoid	-10.3425
▁SCD	-10.3426
▁Nephro	-10.3426
▁quitting	-10.3428
▁cellular	-10.3444
▁fathers	-10.3447
10	-10.3466
▁animal	-10.3475
▁Hormone	-10.3477
▁thinking	-10.349
lle	-10.35
skeletal	-10.35
▁tingling	-10.3501
▁nephropathy	-10.3501
▁variable	-10.3501
▁Noonan	-10.3503
▁rectal	-10.3514
▁Eating	-10.3515
▁Beta	-10.3519
▁digest	-10.3529
▁techniques	-10.353
sensitive	-10.3532
▁action	-10.3564
▁transmission	-10.3578
▁Prostate	-10.3582
▁weakened	-10.359
▁toward	-10.3604
▁Intestin	-10.3618
▁33	-10.3625
▁strong	-10.364
▁approved	-10.3651
▁leuk	-10.3655
▁Kyphos	-10.3656
▁nares	-10.3656
▁grams	-10.3657
Gastrointestinal	-10.3657
▁Paget	-10.3658
▁Dystonia	-10.3658
pancreatic	-10.3659
▁lysosomes	-10.3665
▁stools	-10.3678
▁physically	-10.3693
▁growths	-10.3701
▁suggested	-10.3718
▁ring	-10.3722
phosphate	-10.3725
▁Family	-10.3735
▁behind	-10.3735
▁retinoblastoma	-10.3735
▁survival	-10.3735
▁Large	-10.3735
▁stimulation	-10.3735
2-	-10.3736
▁coma	-10.3737
▁edema	-10.3751
▁minerals	-10.3764
▁programs	-10.3765
▁jaundice	-10.3769
▁populations	-10.3773
▁stone	-10.3791
▁father	-10.3793
▁narrowing	-10.3802
▁aren	-10.3806
▁compute	-10.3812
▁Dysarthria	-10.3814
▁diagnosing	-10.3814
▁dividing	-10.3814
▁Management	-10.3814
▁consciousness	-10.3814
▁compression	-10.3815
tem	-10.3815
▁expected	-10.3818
▁Can	-10.3837
▁indicate	-10.3855
ups	-10.3857
▁eyelid	-10.3872
ending	-10.3875
▁nails	-10.3883
▁image	-10.3892
▁interact	-10.3894
▁Alopecia	-10.3894
▁fashion	-10.3894
▁knowledge	-10.3894
▁sequence	-10.3894
▁Older	-10.3895
cardiovascular	-10.3907
▁UTIs	-10.391
amino	-10.3913
▁periodic	-10.3913
▁Spondylo	-10.3916
deficiency	-10.3928
▁upon	-10.3959
▁meal	-10.3968
▁Neonatal	-10.3975
▁easy	-10.3975
▁faulty	-10.3975
▁saturated	-10.3975
▁anomaly	-10.3975
▁our	-10.3975
dL	-10.398
▁oculo	-10.3981
▁radiologist	-10.3981
▁chances	-10.3986
▁Pes	-10.3986
▁centers	-10.3994
▁epidermoly	-10.3995
ob	-10.3998
▁infertility	-10.3999
▁Get	-10.4005
▁lips	-10.4012
▁report	-10.4021
▁Ka	-10.4022
▁Bas	-10.4023
▁aim	-10.4032
▁rise	-10.4034
▁waist	-10.4056
▁oncologist	-10.4056
▁First	-10.4056
▁bright	-10.4056
▁dangerous	-10.4057
uria	-10.406
atent	-10.4061
▁neuroblastoma	-10.4068
▁blockers	-10.407
▁mtDNA	-10.4081
▁RNA	-10.4085
▁CDC	-10.4087
▁Wilson	-10.4089
▁cut	-10.4093
▁variations	-10.4106
oblastic	-10.4119
▁Hypo	-10.4133
▁bruising	-10.4138
▁rather	-10.4138
▁Keep	-10.4138
▁steroids	-10.4139
ucopolysaccharid	-10.4143
▁attache	-10.415
▁fund	-10.4158
▁protects	-10.4166
▁intra	-10.4178
▁my	-10.4211
viewed	-10.4211
▁Tissue	-10.4221
▁involvement	-10.4229
▁ALS	-10.4237
▁chambers	-10.4271
causing	-10.4276
digital	-10.4278
▁Or	-10.428
▁knee	-10.4285
ful	-10.4295
▁enamel	-10.4304
▁Ewing	-10.4304
▁ATP	-10.4306
▁Chromosome	-10.4307
▁2)	-10.4307
▁standing	-10.4314
▁My	-10.4319
▁squa	-10.4321
one	-10.4324
▁services	-10.4332
▁sweating	-10.4333
▁suddenly	-10.4335
co	-10.4353
energy	-10.4361
▁restrict	-10.4362
▁kind	-10.437
▁inhibitor	-10.4374
enign	-10.4388
▁communication	-10.4388
▁bring	-10.4388
▁overactive	-10.439
▁antigen	-10.439
▁epiphysis	-10.439
ally	-10.4393
▁diabetic	-10.4397
▁Dep	-10.4405
▁worsens	-10.4412
▁convert	-10.4426
▁pathways	-10.4434
transferase	-10.4448
▁shoulder	-10.4448
▁humans	-10.4453
▁portion	-10.4455
▁actin	-10.4461
▁loose	-10.4469
▁arrhythmias	-10.4471
▁pediatric	-10.4473
▁Nausea	-10.4473
▁insipidus	-10.4473
▁Complications	-10.4473
▁cortical	-10.4473
▁countries	-10.4473
he	-10.4497
▁meals	-10.4502
▁leak	-10.4508
▁Ask	-10.4515
▁spondylo	-10.4524
▁influence	-10.454
▁themselves	-10.4558
Hepatic	-10.4559
▁key	-10.4559
cious	-10.456
▁translocation	-10.4566
▁Wilms	-10.4569
cranial	-10.457
▁neuronal	-10.4574
▁Developmental	-10.4576
▁we	-10.4585
ier	-10.4598
▁divide	-10.4605
poradic	-10.4644
▁Sarcoma	-10.4645
▁Myopia	-10.4645
▁novo	-10.4647
▁persistent	-10.4648
▁hypermobility	-10.4653
▁useful	-10.4655
▁UTI	-10.4655
▁heal	-10.467
▁By	-10.4682
▁tiredness	-10.4695
steroid	-10.4709
lagi	-10.471
ental	-10.4716
▁recent	-10.4721
▁channel	-10.4724
▁coughing	-10.4725
▁free	-10.4727
ituitary	-10.4727
Thrombocytopenia	-10.4732
▁copper	-10.4732
▁FGFR	-10.4732
▁smooth	-10.4732
▁Coar	-10.4733
▁vasculitis	-10.4741
▁Finger	-10.4746
▁Dent	-10.4746
▁iodine	-10.4752
▁layers	-10.4799
▁contractions	-10.4804
▁ovary	-10.4819
▁scientific	-10.4819
▁regression	-10.4819
▁Biologic	-10.4822
▁phosphorus	-10.4827
▁choose	-10.4829
▁Deficiency	-10.4829
▁length	-10.483
▁pale	-10.4831
ci	-10.4837
ide	-10.4852
ag	-10.4854
▁toxins	-10.4869
▁continues	-10.4875
girdle	-10.4884
▁nurse	-10.4892
▁fissure	-10.4893
▁rib	-10.4894
▁notice	-10.4896
▁Microphthalmia	-10.4908
▁Sudden	-10.4908
▁hemophilia	-10.4908
▁menopause	-10.4908
▁neoplasia	-10.4908
▁watch	-10.4908
▁nonsyndromic	-10.4908
▁contaminated	-10.4912
▁materials	-10.4912
▁bilateral	-10.4919
▁We	-10.4921
pa	-10.4931
▁regularly	-10.4934
▁myoclonus	-10.4945
▁folds	-10.4961
coordination	-10.4975
type	-10.4977
▁Glaucoma	-10.4997
▁scleroderma	-10.4997
▁Damage	-10.4997
▁Deep	-10.4997
▁Osteoporosis	-10.4997
▁urologist	-10.4997
▁Read	-10.4997
▁Foundation	-10.4997
▁psoriasis	-10.4998
▁infectious	-10.4999
▁Age	-10.5008
▁Treat	-10.5017
▁Bi	-10.5017
▁passing	-10.5044
▁v	-10.5059
See	-10.5067
▁stops	-10.5071
▁parasite	-10.5075
▁random	-10.5077
00	-10.5078
▁rupture	-10.5085
yperreflexia	-10.5086
▁Thick	-10.5086
▁mood	-10.5087
▁bifida	-10.5087
▁eruption	-10.5088
▁stores	-10.5088
▁fish	-10.5088
▁aging	-10.5091
▁toenails	-10.5105
▁Neuro	-10.5112
▁agenesis	-10.5113
▁poorly	-10.5126
▁beans	-10.5128
cal	-10.5136
▁seek	-10.5151
▁compare	-10.5154
▁point	-10.5156
metastatic	-10.5157
▁tip	-10.5167
▁network	-10.5167
▁complement	-10.5176
port	-10.5176
▁school	-10.5178
▁Ultrasound	-10.5178
▁maintenance	-10.5178
▁boys	-10.5178
▁variability	-10.5178
▁occupational	-10.518
▁pre	-10.5183
▁2.	-10.5183
use	-10.5188
▁Impair	-10.5189
no	-10.5214
▁sweat	-10.5219
▁ectoderm	-10.5223
▁ichthyosis	-10.5235
▁instrument	-10.5238
W	-10.5245
small	-10.525
▁Fanconi	-10.527
▁Huntington	-10.527
▁accompanie	-10.527
▁expectancy	-10.527
▁ganglia	-10.527
▁six	-10.527
▁phalanges	-10.5271
▁belly	-10.5271
▁hemorrhagic	-10.5276
▁inflamed	-10.5276
op	-10.5277
▁EEG	-10.5285
ence	-10.5306
static	-10.5306
▁Anti	-10.5314
▁added	-10.5318
▁meet	-10.533
▁incision	-10.5351
▁St	-10.5361
▁Proximal	-10.5363
▁pyruvate	-10.5364
▁sensorineural	-10.5393
man	-10.5398
▁con	-10.5398
ric	-10.5401
▁inches	-10.5403
▁iris	-10.541
▁Males	-10.542
▁aplasia	-10.5423
▁records	-10.5436
au	-10.5437
motor	-10.5438
▁discuss	-10.544
▁processing	-10.5445
▁elbows	-10.5445
▁meaning	-10.5449
binding	-10.5451
filled	-10.5452
▁diagnostic	-10.5456
▁easier	-10.5456
▁facility	-10.5456
▁penetrance	-10.5456
▁tobacco	-10.5456
▁twice	-10.5456
▁Combination	-10.5456
▁counseling	-10.5457
nih	-10.5458
▁chin	-10.5458
▁cutis	-10.5459
▁specifically	-10.5476
▁meant	-10.5478
▁round	-10.5479
▁sources	-10.5493
▁degree	-10.5495
ak	-10.5517
chain	-10.5532
emoral	-10.5548
▁warm	-10.5549
▁Thyroid	-10.5549
▁medium	-10.555
▁prenatal	-10.555
▁microscopic	-10.555
▁COPD	-10.555
▁Motor	-10.555
▁creatine	-10.555
▁hypo	-10.5551
▁conduction	-10.5552
ab	-10.5552
▁insurance	-10.5553
▁ensure	-10.5559
▁amyotrophy	-10.5561
pigmentation	-10.5561
▁maternal	-10.5562
▁Gen	-10.5565
▁did	-10.5566
form	-10.559
▁35	-10.5598
▁regulat	-10.5601
▁pills	-10.5611
▁spasticity	-10.5623
colored	-10.5628
▁successful	-10.5635
▁Will	-10.5638
▁newborn	-10.5641
▁world	-10.5645
▁hormonal	-10.5646
▁Aicardi	-10.5646
▁transmitted	-10.5646
▁noticeable	-10.5647
▁sinuses	-10.5649
▁Poor	-10.5649
▁LCH	-10.565
▁myoclonic	-10.565
▁passes	-10.5654
▁Mer	-10.5656
▁noncancerous	-10.566
▁carnitine	-10.566
▁prostat	-10.567
▁Cone	-10.5676
▁destruction	-10.5685
ard	-10.5693
▁variants	-10.5698
▁nystagmus	-10.5701
▁arteri	-10.5702
▁shrink	-10.5718
▁fail	-10.5719
lin	-10.5721
obstruction	-10.5726
lo	-10.5726
▁intervention	-10.5735
▁tetra	-10.574
▁stiff	-10.5741
aldosteronism	-10.5742
▁Activity	-10.5742
▁Instead	-10.5742
▁Pressure	-10.5742
▁excavatum	-10.5742
▁motion	-10.5742
▁warfarin	-10.5742
▁tunnel	-10.5746
▁overload	-10.5746
▁Ur	-10.5747
▁encephalitis	-10.5757
▁sounds	-10.5757
▁teens	-10.5758
▁lipid	-10.5764
ant	-10.5768
▁shoulders	-10.5768
▁page	-10.5774
thoracic	-10.5805
grade	-10.5824
▁wrist	-10.5833
▁access	-10.5834
▁complication	-10.5834
lactic	-10.5839
▁Hemolytic	-10.5839
▁Nutrition	-10.5839
▁pigmentosa	-10.5839
▁distress	-10.5839
▁sacs	-10.5847
▁synthetase	-10.5857
▁Tetra	-10.5866
▁Part	-10.5869
ron	-10.589
ian	-10.5891
ectomy	-10.5893
▁triglycerides	-10.5896
ECP	-10.5903
Walker	-10.5921
▁great	-10.5922
including	-10.5924
▁benefits	-10.5926
▁car	-10.5936
▁Cirrhosis	-10.5937
▁Female	-10.5937
▁insomnia	-10.5937
▁possibly	-10.5937
▁uncommon	-10.5937
▁issues	-10.5937
▁Hypoglycemia	-10.5937
▁improvement	-10.5941
▁endoscope	-10.5941
▁enlargement	-10.5942
ers	-10.5943
▁carefully	-10.5946
▁RLS	-10.5946
▁abuse	-10.5947
▁lymphatic	-10.5956
▁phospho	-10.5958
▁PKD	-10.5959
plastic	-10.5962
75%	-10.5968
▁IE	-10.5983
na	-10.5988
▁ulcerati	-10.599
20	-10.5995
▁inserts	-10.601
▁repeat	-10.6017
do	-10.6019
▁Radi	-10.602
▁Factors	-10.6022
▁Diabet	-10.6034
▁germs	-10.6034
▁Carrier	-10.6036
▁Vitamin	-10.6036
▁Single	-10.6036
▁Myopathy	-10.6036
▁regard	-10.6036
chemic	-10.6036
▁pay	-10.6037
▁Behavioral	-10.6038
▁dopamine	-10.604
▁basis	-10.604
aki	-10.6041
▁sickle	-10.6041
▁focal	-10.6043
brand	-10.6054
▁relief	-10.6055
▁inversus	-10.6055
▁harder	-10.6056
▁alopecia	-10.6065
verse	-10.6065
▁contractures	-10.6089
▁HD	-10.609
troenterologist	-10.6095
neurons	-10.6119
homeostasis	-10.6122
NIH	-10.6125
▁deliver	-10.6128
▁antibiotic	-10.6134
▁option	-10.6134
rthralgia	-10.6136
▁Metabolic	-10.6136
▁bili	-10.6136
▁stopping	-10.6138
▁excision	-10.6142
▁top	-10.615
kel	-10.6154
▁blisters	-10.6157
▁polyposis	-10.6158
▁allergic	-10.6161
▁aspiration	-10.6167
forming	-10.617
▁destroyed	-10.6175
▁GH	-10.6182
▁aneurysms	-10.6197
▁dont	-10.6202
can	-10.6204
▁shaped	-10.6215
▁weaken	-10.6227
▁asbestos	-10.6234
▁ridge	-10.6236
▁sphincter	-10.6237
▁Alpha	-10.6237
▁gastritis	-10.6237
red	-10.6237
fat	-10.6237
▁personality	-10.6238
▁diaphragm	-10.6239
▁somatic	-10.6239
▁Mild	-10.6243
losing	-10.6247
old	-10.6259
▁again	-10.6261
▁confirmed	-10.6279
tion	-10.6299
▁store	-10.6318
▁axi	-10.6321
▁hemiplegi	-10.633
▁typical	-10.6334
▁drops	-10.6337
▁Constipation	-10.6339
▁acuity	-10.6339
▁cholestasis	-10.6339
▁Graves	-10.6339
▁clothing	-10.6339
▁deviation	-10.6339
▁reflexes	-10.6339
▁myeloma	-10.634
▁anywhere	-10.6341
▁simplex	-10.6342
▁ossification	-10.6343
▁North	-10.6343
▁CF	-10.635
▁redness	-10.6354
▁hydrocephalus	-10.6363
▁reports	-10.6366
▁steroid	-10.6367
▁asleep	-10.6371
tin	-10.6381
▁spaced	-10.6391
efore	-10.64
▁AML	-10.641
▁sub	-10.6424
▁Decision	-10.6442
▁Hashimoto	-10.6442
▁Tremor	-10.6442
▁cervix	-10.6442
▁commercial	-10.6442
▁exercising	-10.6442
▁intelligence	-10.6442
▁urea	-10.6442
▁Fallot	-10.6445
▁bind	-10.6445
▁radius	-10.6445
▁prednisone	-10.6447
▁impulses	-10.6451
▁occurring	-10.6465
▁ALL	-10.6466
▁press	-10.6477
▁speaking	-10.6485
▁Lo	-10.6485
▁suppress	-10.6491
▁touch	-10.6515
▁vaccines	-10.6531
▁situ	-10.6532
omegaly	-10.6538
microcephaly	-10.6539
▁ventricles	-10.6541
Blepharophimosis	-10.6546
▁double	-10.6546
▁nucleus	-10.6547
if	-10.6547
▁drop	-10.6548
▁gluten	-10.6553
▁grains	-10.6562
▁mucosa	-10.6576
▁telangiectasia	-10.6584
itial	-10.6584
▁AD	-10.659
▁axon	-10.6592
▁fill	-10.6625
was	-10.6627
▁exercises	-10.664
▁Dementia	-10.6651
▁Guide	-10.6651
▁equinovarus	-10.6651
▁extent	-10.6651
▁explain	-10.6651
▁contrast	-10.6651
▁hGH	-10.6652
▁KRT	-10.6652
hemiparesis	-10.6652
▁asymmetry	-10.6662
▁Try	-10.6666
▁determined	-10.6668
▁CFS	-10.6674
of	-10.6681
typical	-10.6688
▁beam	-10.6691
▁cheeks	-10.6692
▁Urine	-10.6702
▁AF	-10.6704
▁arrhythmia	-10.6708
traocular	-10.6726
▁19	-10.6735
▁trying	-10.6735
lick	-10.6737
▁clean	-10.6747
▁aggressive	-10.6749
▁fact	-10.6751
▁roles	-10.6752
▁Hernia	-10.6758
▁Screening	-10.6758
▁Usually	-10.6758
▁bloating	-10.6758
▁lethal	-10.6758
▁rickets	-10.6758
▁sarcoidosis	-10.6758
▁Hemiplegia	-10.6758
▁invaders	-10.6758
▁dust	-10.6758
▁differ	-10.676
▁spontaneous	-10.676
▁relatives	-10.676
▁SCN	-10.676
▁operation	-10.676
▁hairline	-10.6762
▁girls	-10.6763
▁IgA	-10.6767
▁Turn	-10.6782
▁Red	-10.6802
PD	-10.6826
aimed	-10.6831
▁neurologic	-10.6836
▁cone	-10.6852
▁65	-10.6854
with	-10.6856
thorax	-10.6865
▁Leber	-10.6865
▁vulva	-10.6865
▁institutions	-10.6865
▁intermediate	-10.6865
▁stick	-10.6866
▁fainting	-10.6873
▁palmoplantar	-10.6887
▁carpal	-10.6887
ski	-10.6895
▁infusion	-10.6898
▁Late	-10.69
▁Me	-10.6912
▁online	-10.6918
▁pro	-10.6921
▁screen	-10.6927
▁Tho	-10.6945
von	-10.6957
▁act	-10.6968
▁Alcohol	-10.6974
▁Vision	-10.6974
▁albinism	-10.6974
▁camera	-10.6974
▁Exercise	-10.6974
▁underlie	-10.6974
▁yourself	-10.6974
▁psychiatric	-10.6974
▁pterygium	-10.6974
▁mistaken	-10.6975
▁Spli	-10.6975
▁nonfunctional	-10.6975
▁canal	-10.6978
▁solution	-10.6978
▁irritation	-10.698
▁product	-10.698
▁blistering	-10.6981
▁blue	-10.6983
▁ACTH	-10.6988
▁AMD	-10.6991
▁studying	-10.6992
▁45	-10.6993
AP	-10.7001
▁looking	-10.7008
▁vaginal	-10.7011
▁pron	-10.7019
▁surrounds	-10.7021
▁Slow	-10.7022
▁Ex	-10.7028
mi	-10.703
▁Pro	-10.704
ternal	-10.7045
▁Prevent	-10.7052
▁feelings	-10.7059
▁cataracts	-10.7072
positive	-10.7083
▁Cholesterol	-10.7084
▁rigidity	-10.7084
▁shortened	-10.7087
▁Ichthyosis	-10.7087
et	-10.709
▁episode	-10.7092
▁coagulation	-10.7098
▁incomplete	-10.71
▁recur	-10.7104
▁partially	-10.7107
▁carbon	-10.7114
▁sore	-10.7115
1)	-10.7116
low	-10.712
▁planus	-10.7125
▁eosinophil	-10.7151
▁enlarge	-10.7181
ural	-10.719
▁ethnic	-10.7194
magnet	-10.7195
▁Administration	-10.7195
▁Deafness	-10.7195
▁Right	-10.7195
▁allergies	-10.7195
▁diffus	-10.7195
▁floor	-10.7195
chondrodysplasia	-10.7195
▁Nail	-10.7195
▁mention	-10.7198
▁Cystic	-10.7199
▁Currently	-10.72
rod	-10.7201
paroxysmal	-10.7222
▁interpret	-10.7225
▁fracture	-10.7228
ory	-10.7233
▁n	-10.7236
▁charge	-10.7253
ization	-10.7256
ID	-10.7257
▁drain	-10.7259
▁widen	-10.7276
▁lasting	-10.7278
▁fit	-10.728
▁regulates	-10.7291
oc	-10.7297
▁glomerul	-10.7303
lease	-10.7307
▁careful	-10.7307
Acquired	-10.7307
▁Hemochromatosis	-10.7307
▁History	-10.7307
▁absorption	-10.7307
▁shingles	-10.7307
▁bronchitis	-10.7307
▁black	-10.7308
▁hyperactivity	-10.7308
▁needles	-10.731
stage	-10.731
▁training	-10.7312
▁method	-10.7318
▁transfusion	-10.7318
▁sac	-10.7321
▁hypertrophy	-10.7327
▁chain	-10.7336
▁PH	-10.734
osse	-10.7346
CAT	-10.7351
▁spot	-10.7357
▁VI	-10.7361
▁delays	-10.7365
▁intrahepatic	-10.7366
airy	-10.7372
▁media	-10.7376
▁Atria	-10.7392
ern	-10.7406
▁micro	-10.7407
▁Bladder	-10.7421
▁Bleeding	-10.7421
▁Vomiting	-10.7421
▁lactate	-10.7421
▁Glucose	-10.7421
▁beyond	-10.7421
▁room	-10.7421
▁dissection	-10.7421
▁Arrhythmia	-10.7431
▁far	-10.7441
▁proximal	-10.7441
▁angles	-10.7445
▁port	-10.7447
▁words	-10.7454
ping	-10.7462
▁moves	-10.7484
▁nutritional	-10.7496
geal	-10.7513
almoplantar	-10.7531
▁Drugs	-10.7533
grants	-10.7534
ff	-10.7536
▁cavus	-10.7536
▁skeleton	-10.7536
▁Klippel	-10.7536
▁Periton	-10.7536
▁react	-10.7537
▁Are	-10.7541
▁delivery	-10.7545
▁Exam	-10.7546
▁swallowed	-10.7547
▁ventricle	-10.7549
▁elbow	-10.7549
pper	-10.7552
mutation	-10.7554
triggered	-10.7559
▁Dand	-10.756
▁tremors	-10.7564
▁seal	-10.7566
▁exist	-10.7573
▁bumps	-10.7577
▁exams	-10.759
▁bad	-10.7596
▁CSF	-10.7604
hand	-10.762
▁sent	-10.7633
▁adjust	-10.764
▁previous	-10.7642
epiphyse	-10.7649
▁Migraine	-10.7652
▁solid	-10.7652
▁Conditions	-10.7652
▁sunlight	-10.7652
▁hypogonadism	-10.7653
▁carcinoid	-10.7653
▁neural	-10.7654
▁Spasticity	-10.7654
▁Thre	-10.7655
▁AAT	-10.7656
▁Melanoma	-10.7656
scoliosis	-10.7657
▁hypotension	-10.7664
▁waiting	-10.7664
▁necrosis	-10.7665
▁nodules	-10.7669
▁beat	-10.7673
lain	-10.7699
▁lines	-10.7709
▁saliva	-10.7715
▁seizure	-10.772
▁injections	-10.7732
ex	-10.7736
▁cover	-10.7739
▁decreases	-10.7748
▁disturbances	-10.7752
▁multi	-10.7753
▁sharp	-10.7769
▁amyloid	-10.7769
▁equipment	-10.777
▁guide	-10.777
▁nursing	-10.777
▁predict	-10.777
▁reductase	-10.777
responsive	-10.7771
▁Take	-10.7772
▁trained	-10.7772
▁fructose	-10.7775
heart	-10.7776
▁soles	-10.7792
▁button	-10.7805
▁CH	-10.783
od	-10.7835
▁21-	-10.7839
▁tears	-10.7849
▁NF	-10.7852
pulmonary	-10.7853
▁rates	-10.7857
▁corners	-10.7881
▁macula	-10.7887
▁Leigh	-10.7889
▁Stress	-10.7889
▁balloon	-10.7889
▁fear	-10.7889
▁Program	-10.7889
▁profound	-10.7889
▁Weakness	-10.7889
▁pneumothorax	-10.7895
▁defective	-10.7897
congenital	-10.7897
▁occurred	-10.7898
▁cramping	-10.7898
▁recently	-10.7903
▁disappear	-10.7904
induce	-10.7905
▁neoplasm	-10.7906
▁Factor	-10.7907
▁Types	-10.7908
▁generation	-10.791
▁let	-10.7911
▁listen	-10.7912
▁expression	-10.7918
▁focus	-10.7921
▁adolescents	-10.7923
▁Ga	-10.7928
▁flows	-10.793
▁White	-10.7952
▁looks	-10.7956
▁palms	-10.7963
▁receptors	-10.7966
▁undergo	-10.7971
▁neurofibromatos	-10.7972
▁Child	-10.7979
▁extend	-10.7994
anal	-10.7998
▁add	-10.7999
reflexia	-10.8002
▁acts	-10.8003
ardiac	-10.8004
onductive	-10.8008
▁Complet	-10.8009
▁narcolepsy	-10.8009
▁Flexi	-10.8009
▁glycosylation	-10.8009
▁Anterior	-10.801
▁glomeruli	-10.8011
▁seeds	-10.8012
opia	-10.8012
▁thrombosis	-10.8013
▁Asian	-10.8014
▁millimeters	-10.8016
ble	-10.8018
▁1,000	-10.8018
▁corner	-10.8021
▁gallstones	-10.8026
▁crease	-10.8027
▁Medicine	-10.8028
▁corticosteroid	-10.8028
▁cope	-10.8029
be	-10.8033
sen	-10.8037
▁sensations	-10.8037
▁something	-10.8041
▁HPV	-10.8041
▁beating	-10.8043
▁Germ	-10.8054
▁testicles	-10.8081
▁Too	-10.8084
▁ex	-10.8084
▁Hypertroph	-10.8099
▁24	-10.8113
▁methods	-10.8121
iform	-10.8129
▁quantit	-10.8131
▁Trans	-10.8131
lipoproteinemia	-10.8131
▁Asthma	-10.8131
▁Baby	-10.8131
▁Cutaneous	-10.8131
▁Malabsorption	-10.8131
▁University	-10.8131
▁hollow	-10.8131
▁Posterior	-10.8131
▁blurred	-10.8131
▁therefore	-10.8131
▁diaphragmatic	-10.8132
▁Thus	-10.8134
▁irritability	-10.8135
▁neutropenia	-10.8149
▁Mo	-10.815
▁signal	-10.8155
not	-10.8158
▁friends	-10.817
▁fasting	-10.8172
▁oils	-10.8192
▁La	-10.8196
day	-10.8213
po	-10.8214
ST	-10.8215
▁Topics	-10.8217
▁mechanisms	-10.8229
▁strokes	-10.8247
▁recognize	-10.8248
▁force	-10.8251
▁America	-10.8253
▁deformity	-10.8255
▁transcription	-10.8255
▁widespread	-10.8255
▁decide	-10.8255
▁stent	-10.8255
▁Nerve	-10.8255
▁mitral	-10.8256
▁safety	-10.8256
vi	-10.8256
▁recurrence	-10.8258
▁planned	-10.8264
▁larynx	-10.8265
▁faster	-10.827
▁dwarfism	-10.8271
▁pleas	-10.8272
▁naturally	-10.8274
▁thigh	-10.8276
acanthocytosis	-10.8286
▁immunoglobulin	-10.8289
▁contraction	-10.8289
icromelia	-10.8298
▁surgically	-10.8298
▁ureters	-10.83
ancreatic	-10.8308
Y	-10.8314
▁negative	-10.8321
▁Pseudo	-10.8326
un	-10.833
pro	-10.8333
▁evaluate	-10.8337
▁MT	-10.835
▁empty	-10.8355
▁MS	-10.8372
onychia	-10.8377
▁Mandibul	-10.8377
▁Hemodialysis	-10.838
▁Umbilical	-10.838
▁histiocytosis	-10.838
oloprosencephaly	-10.838
▁intense	-10.838
▁Se	-10.838
▁Lack	-10.838
▁Holt	-10.8381
▁Occasionally	-10.8381
▁epidermis	-10.8382
▁occasionally	-10.8382
▁thymus	-10.8383
▁UI	-10.8386
▁lessen	-10.839
▁thickening	-10.8392
▁Don	-10.8393
hour	-10.8394
▁sporadically	-10.8396
specific	-10.8396
▁IgM	-10.8396
▁PCD	-10.8399
▁Tumor	-10.8403
▁tasks	-10.8408
lycogen	-10.8409
▁resection	-10.8418
▁replaced	-10.8428
▁events	-10.8431
▁De	-10.8444
▁Leuk	-10.8453
pharynge	-10.846
ture	-10.8469
com	-10.848
▁Ma	-10.8486
-2	-10.8499
▁border	-10.8506
▁Bifid	-10.8506
▁Duane	-10.8506
▁Polyhydramnios	-10.8506
▁oxidase	-10.8506
▁phenomenon	-10.8506
▁retinitis	-10.8506
▁bypass	-10.8506
▁Lifestyle	-10.8506
Guil	-10.8506
▁myelodysplastic	-10.8506
enne	-10.8508
▁immediately	-10.8515
▁chloride	-10.8517
ef	-10.8521
▁ophthalmoplegia	-10.8525
rom	-10.8526
▁Sjgren	-10.8529
▁inguinal	-10.8533
The	-10.8535
▁whites	-10.854
▁brown	-10.8544
third	-10.8552
binds	-10.8562
▁clusters	-10.8601
auricul	-10.8601
care	-10.8602
▁embryo	-10.8609
ohns	-10.8614
ker	-10.8616
etween	-10.8632
▁Inguinal	-10.8635
▁scrotum	-10.8635
▁Therefore	-10.8635
▁rehabilitation	-10.8635
▁Specifically	-10.8635
▁Make	-10.8635
▁Cardiomyopathy	-10.8635
▁Unlike	-10.8638
▁endothelial	-10.8638
,000	-10.8638
▁gout	-10.864
▁hyperthyroidism	-10.864
▁malabsorption	-10.864
▁Iron	-10.864
▁balanced	-10.8643
▁mucous	-10.8646
▁testosterone	-10.8647
▁meningitis	-10.8649
▁covered	-10.8651
failure	-10.8652
▁cervical	-10.8653
▁auditory	-10.8654
rouble	-10.8657
▁deficit	-10.866
▁mole	-10.8661
▁mechanism	-10.8661
▁interaction	-10.8662
aking	-10.8664
IP	-10.8667
▁DASH	-10.8668
▁closely	-10.8681
em	-10.8682
▁slows	-10.8686
▁sleeping	-10.8687
▁lobes	-10.8703
▁invasive	-10.8705
IV	-10.872
cy	-10.8726
▁75	-10.8737
▁stretch	-10.8747
▁improves	-10.875
▁gradual	-10.8754
▁4)	-10.8758
tice	-10.8759
▁success	-10.8764
▁Cowden	-10.8764
▁prion	-10.8764
▁thrombophilia	-10.8764
▁warning	-10.8764
Craniosynostosis	-10.8764
craniosynostosis	-10.8765
▁MYH	-10.8765
19	-10.8765
▁stable	-10.8765
▁digestion	-10.8766
▁bowing	-10.877
per	-10.877
▁discovered	-10.877
▁circulating	-10.8772
▁Oculo	-10.8773
pacific	-10.8774
▁IBS	-10.8776
▁DIC	-10.8781
▁previously	-10.8785
▁basic	-10.8785
▁record	-10.8788
▁professionals	-10.879
▁lymphedema	-10.8802
▁Tay	-10.8805
loss	-10.8808
▁subunit	-10.8832
phalange	-10.8835
▁55	-10.8839
patosplenomegaly	-10.8851
ish	-10.8873
dema	-10.8876
▁posterior	-10.8886
nic	-10.8888
▁consult	-10.8894
pyramid	-10.8896
▁Hypertrichosis	-10.8896
▁Hypothyroidism	-10.8896
▁Leiden	-10.8896
▁lipofuscinosis	-10.8896
▁Partial	-10.8897
▁sideroblast	-10.8897
▁That	-10.8897
▁multiplex	-10.8913
▁Anal	-10.8914
utlook	-10.8916
dystonia	-10.8917
BP	-10.8918
▁physician	-10.8925
▁bulb	-10.8926
▁arise	-10.8926
▁monitoring	-10.8965
▁leukodystrophy	-10.8965
▁inter	-10.9013
growing	-10.902
▁approach	-10.9028
▁BRCA	-10.9029
▁hemodialysis	-10.9029
▁lactase	-10.9029
▁Osteoarthritis	-10.9029
icropenis	-10.9029
▁bounce	-10.9029
▁mosaicism	-10.9029
13.3	-10.903
▁Proteinuria	-10.903
▁punctata	-10.9031
▁gray	-10.9036
▁polycythemia	-10.9036
▁Fine	-10.9047
▁EMG	-10.9047
▁me	-10.9054
▁TTP	-10.9056
▁antigens	-10.9059
▁compound	-10.9061
▁disruption	-10.9065
▁Macrot	-10.9082
▁epithelial	-10.9085
▁spin	-10.9105
▁ortho	-10.912
▁Vari	-10.9121
▁beats	-10.915
▁talking	-10.9159
cyclic	-10.9163
▁distinct	-10.9164
▁Fibro	-10.9164
▁Biopsy	-10.9165
▁Hirschsprung	-10.9165
▁Wolfram	-10.9165
▁sponge	-10.9165
▁unlikely	-10.9165
▁atoms	-10.9165
▁hyperkeratosis	-10.9165
▁Yes	-10.9169
▁Wear	-10.917
▁clouding	-10.9176
▁pancreatitis	-10.9176
ot	-10.9178
▁tips	-10.9182
▁midface	-10.9185
▁join	-10.9186
▁Spina	-10.919
▁nipple	-10.9198
▁trachea	-10.9198
▁microphthalmia	-10.9198
▁gum	-10.92
land	-10.9209
▁reading	-10.9219
▁narrowed	-10.9231
▁placenta	-10.9234
▁tick	-10.9235
lanted	-10.9236
ted	-10.9267
▁pieces	-10.9279
ytochrome	-10.9292
▁scleros	-10.9292
▁Angina	-10.9302
▁Langerhans	-10.9302
▁detachment	-10.9302
▁purpura	-10.9302
▁schedule	-10.9302
▁susceptible	-10.9302
▁wrong	-10.9302
▁sister	-10.9302
▁descent	-10.9302
▁dioxide	-10.9302
▁proven	-10.9302
▁replacing	-10.9302
▁say	-10.9302
▁stopped	-10.9303
▁Thicken	-10.9303
▁observed	-10.9304
▁fibrillation	-10.9306
▁deficiencies	-10.9306
▁deleted	-10.9315
▁insert	-10.932
etaphyse	-10.9321
genetic	-10.9321
▁grade	-10.9324
▁fused	-10.9324
peripheral	-10.9328
▁biological	-10.9331
bo	-10.9333
▁lipoprotein	-10.9337
▁cuts	-10.9338
▁girdle	-10.9339
▁hole	-10.9347
▁Ro	-10.9362
▁pleur	-10.9364
MP	-10.9377
▁compounds	-10.9408
▁Ca	-10.9412
▁Development	-10.9412
pheochromocytoma	-10.9426
▁Ups	-10.9427
olated	-10.9433
▁Flat	-10.944
▁mosaic	-10.944
nucleotide	-10.944
▁Attack	-10.944
▁Imaging	-10.944
▁Klinefelter	-10.944
▁filaments	-10.944
▁polymicrogyria	-10.944
▁undescended	-10.944
▁Blue	-10.944
▁reveal	-10.944
▁split	-10.944
▁raw	-10.9441
▁Regular	-10.9441
▁Bartter	-10.9441
▁tensing	-10.9441
▁scanner	-10.9441
▁caffeine	-10.9441
▁visible	-10.9441
▁improved	-10.9444
▁Schi	-10.9444
▁itchy	-10.9446
▁species	-10.9448
▁degrees	-10.9454
▁Radio	-10.946
roptosis	-10.9468
▁coordinat	-10.9469
▁cup	-10.9471
▁checks	-10.9471
▁Every	-10.9473
cost	-10.9473
▁palliative	-10.9476
▁cluster	-10.9478
bry	-10.9478
▁perni	-10.9485
eggs	-10.9492
ili	-10.9492
ER	-10.9511
▁breaking	-10.9512
par	-10.952
▁inclusion	-10.9528
▁epiderm	-10.9559
▁immuno	-10.956
▁except	-10.957
eroid	-10.9575
rregular	-10.9579
▁KCN	-10.9581
▁Four	-10.9581
▁carinatum	-10.9581
▁embolism	-10.9581
▁malformed	-10.9581
▁insensitivity	-10.9581
▁echoes	-10.9583
▁Dilat	-10.9583
▁fullness	-10.9585
▁fibrous	-10.9587
CDG	-10.9587
▁osteochondr	-10.9591
▁parkinsonism	-10.961
▁autism	-10.961
▁names	-10.9612
atrophy	-10.9614
optic	-10.9614
▁APS	-10.9615
▁exchange	-10.9618
▁Protein	-10.9619
▁evaluation	-10.9619
▁concentration	-10.9619
rs	-10.9623
itral	-10.9629
cet	-10.964
eg	-10.9659
▁differences	-10.9659
▁immature	-10.9666
▁dentist	-10.9675
ple	-10.9679
dysplasia	-10.9684
▁21	-10.9685
▁Side	-10.9706
RA	-10.971
▁Lip	-10.9718
▁infect	-10.9718
▁Pediatric	-10.9724
ohistiocytosis	-10.9724
▁Inflammation	-10.9724
▁chills	-10.9724
▁hyperthermia	-10.9724
▁particles	-10.9724
▁velocity	-10.9724
▁thrombocythemia	-10.9727
▁Depression	-10.9727
▁cage	-10.9727
▁soil	-10.9729
▁fertility	-10.973
▁fetalis	-10.973
▁Specific	-10.9733
▁doing	-10.9736
▁globulin	-10.9736
▁Myotoni	-10.9737
▁spontaneously	-10.9738
▁Feeling	-10.974
▁Opitz	-10.9748
▁transporter	-10.9749
ty	-10.9753
▁migration	-10.9755
AIDS	-10.9757
▁Addison	-10.9764
▁trait	-10.9766
▁lesion	-10.9766
ocytic	-10.9776
vascular	-10.9778
CP	-10.9783
oxa	-10.9794
▁tendons	-10.9817
trophic	-10.982
▁threatening	-10.9824
▁components	-10.9826
▁Macula	-10.9831
▁urge	-10.9869
Wiedemann	-10.9869
lectrocardiogram	-10.9869
▁Association	-10.9869
▁Gingiv	-10.9869
▁Inflammatory	-10.9869
▁frozen	-10.9869
▁prior	-10.9869
▁suffer	-10.9869
▁synthase	-10.9869
▁urgency	-10.9869
▁Syndactyly	-10.9869
▁fecal	-10.9869
▁sparse	-10.9869
▁strategies	-10.9869
▁Head	-10.9869
Gorlin	-10.9869
▁dysgenesis	-10.9869
▁mucolipidos	-10.9869
▁combinations	-10.9871
▁Maintain	-10.9871
▁Cut	-10.9874
▁repeats	-10.9874
▁gangliosidosis	-10.9886
▁Bar	-10.9892
▁Treated	-10.9893
▁Vert	-10.9901
cut	-10.9905
▁Li	-10.9907
▁Limited	-10.9909
▁Pe	-10.9913
▁objects	-10.992
▁healing	-10.9922
systemic	-10.9928
▁Len	-10.9935
▁review	-10.9947
active	-10.9958
▁mothers	-10.9962
mental	-10.998
24	-10.9981
▁esophag	-10.9982
▁Fa	-10.9988
▁Normal	-11.001
fectious	-11.0013
▁Africa	-11.0014
ervous	-11.0016
elecanthus	-11.0016
▁Tourette	-11.0016
▁prolapse	-11.0016
▁pylori	-11.0016
▁slide	-11.0016
▁unstable	-11.0016
Foot	-11.0016
Diamond	-11.0016
▁Secondary	-11.0018
ok	-11.0018
▁Ectopi	-11.0018
▁duodenum	-11.0019
▁placement	-11.0019
▁localized	-11.002
▁metaphyses	-11.002
▁Rett	-11.0021
▁lenses	-11.0021
▁mono	-11.0025
▁Topic	-11.0031
▁parasites	-11.0037
▁Services	-11.0037
▁palpitations	-11.0042
ulnar	-11.0045
anemia	-11.0054
▁absorbed	-11.0057
▁falls	-11.0076
yporeflexia	-11.0079
▁Extra	-11.0083
some	-11.0084
▁specially	-11.0085
fe	-11.0085
▁choices	-11.0091
▁26	-11.0091
▁pupil	-11.0108
LA	-11.0119
▁stays	-11.0123
▁bleed	-11.0134
▁design	-11.0136
▁ulna	-11.0136
▁ED	-11.0136
▁deletions	-11.0141
▁Cells	-11.0155
▁immediate	-11.0155
▁Like	-11.0164
▁Babies	-11.0165
▁Death	-11.0165
▁Epstein	-11.0165
▁GeneTests	-11.0165
▁Group	-11.0165
▁ammonia	-11.0165
▁glucagon	-11.0165
▁extensive	-11.0165
▁vera	-11.0166
▁sleepiness	-11.0166
di	-11.0167
▁craniofacial	-11.0175
▁hyperostosis	-11.0177
▁liquids	-11.0177
▁mis	-11.018
▁neurodegenerati	-11.0183
▁converted	-11.0192
opathy	-11.0196
globin	-11.0202
spasticity	-11.0204
▁clumps	-11.0221
iddle	-11.0226
▁seeing	-11.0227
▁alveolar	-11.0237
▁Na	-11.0243
ureter	-11.0253
▁shorter	-11.0266
myotrophic	-11.0268
▁raised	-11.0279
▁aids	-11.0282
▁neoplasms	-11.0295
▁prompt	-11.0306
▁quick	-11.0306
▁Special	-11.031
▁choroid	-11.0316
oubert	-11.0317
▁Pregnancy	-11.0317
▁dissecans	-11.0317
▁laxa	-11.0317
▁CYP	-11.0317
▁gender	-11.0317
BBB	-11.0317
▁save	-11.0317
cholesterolemia	-11.0317
▁brainstem	-11.0317
▁folate	-11.0318
▁RTA	-11.0318
▁Miller	-11.0318
▁Diff	-11.0318
▁subcutaneous	-11.0319
▁ridges	-11.0319
▁Underdevelop	-11.032
▁thyroiditis	-11.0324
▁chewing	-11.0329
▁activation	-11.033
▁dis	-11.0361
▁Den	-11.0372
▁month	-11.0373
▁binding	-11.0394
▁1-	-11.0397
▁subtypes	-11.0414
▁damag	-11.0423
▁spaces	-11.0438
▁education	-11.0442
ken	-11.0445
▁carbohydrates	-11.0452
matic	-11.0454
topic	-11.0467
ypospadias	-11.0469
posit	-11.0469
▁FOX	-11.0469
▁ill	-11.047
▁UV	-11.047
▁Colorectal	-11.0471
▁Fatigue	-11.0471
▁Friedreich	-11.0471
▁Neuroblastoma	-11.0471
▁Waardenburg	-11.0471
▁abilities	-11.0471
▁evident	-11.0471
▁field	-11.0471
▁keratin	-11.0471
▁overlap	-11.0471
▁true	-11.0471
▁Pigment	-11.0471
▁Enlarge	-11.0471
▁fair	-11.0471
▁malnutrition	-11.0471
▁tachycardia	-11.0471
▁drainage	-11.0471
▁transient	-11.0471
▁nonmelanoma	-11.0471
▁Monoc	-11.0473
▁Neuron	-11.0475
▁rashes	-11.0479
▁r	-11.0482
CAG	-11.0485
▁Carp	-11.0485
ysphagia	-11.0486
▁artificial	-11.0486
▁dermatitis	-11.0486
▁GSD	-11.0486
underdevelopment	-11.0488
GI	-11.049
IF	-11.0491
achs	-11.0491
▁tear	-11.0497
▁Po	-11.0501
▁hematuria	-11.0507
▁belong	-11.0521
▁wheelchair	-11.0521
▁wound	-11.0523
▁bite	-11.0525
▁larynge	-11.0526
▁heartbeats	-11.0529
cleft	-11.0536
▁sites	-11.055
pe	-11.0555
▁advise	-11.0606
▁reverse	-11.0611
▁RAS	-11.0618
RT	-11.0625
isplacement	-11.0626
▁Gestational	-11.0627
▁Myoclonus	-11.0627
▁anesthetic	-11.0627
▁beverages	-11.0627
▁column	-11.0627
▁gap	-11.0627
▁megacolon	-11.0627
▁straight	-11.0627
varicose	-11.0627
▁assistance	-11.0627
▁fine	-11.0629
glycer	-11.063
enile	-11.063
voluntary	-11.0631
▁date	-11.0632
▁won	-11.0633
▁myasthenia	-11.0633
ance	-11.0636
▁osteoarthritis	-11.0637
▁crystals	-11.0639
vant	-11.0641
▁46	-11.0645
▁sports	-11.0646
▁AR	-11.0647
▁windpipe	-11.0648
▁bottom	-11.0658
▁proteinuria	-11.0663
▁atria	-11.0668
▁bra	-11.0669
▁rearrangement	-11.068
▁markers	-11.068
bl	-11.0686
▁managed	-11.0699
▁pleura	-11.071
▁sp	-11.0726
▁Cr	-11.073
hi	-11.073
uh	-11.0734
▁Hand	-11.0749
▁Co	-11.0751
pical	-11.0764
▁Ver	-11.0766
▁fol	-11.0766
▁Le	-11.077
▁cross	-11.077
yperkeratosis	-11.0785
phospholipid	-11.0785
aundice	-11.0786
▁Environment	-11.0786
raniopharyngioma	-11.0786
▁Peyronie	-11.0786
▁bluish	-11.0786
▁expressivity	-11.0786
▁gravis	-11.0786
▁Platyspondyl	-11.0786
▁Thorac	-11.0786
▁Babin	-11.0786
▁tolerance	-11.0786
▁crisis	-11.0786
▁monoc	-11.0788
▁CMT	-11.0788
▁endoscopy	-11.0789
▁Tract	-11.079
▁impact	-11.0792
▁gamma	-11.0796
▁interested	-11.08
▁ITP	-11.0805
▁derm	-11.0805
▁big	-11.0809
▁ounces	-11.0817
▁eyebrows	-11.0821
▁emptying	-11.0826
high	-11.0829
▁directed	-11.0831
ih	-11.0831
gi	-11.0832
Pick	-11.0832
▁green	-11.0834
kinase	-11.0834
contain	-11.0835
benign	-11.0836
▁eyeball	-11.0841
▁ocular	-11.0852
▁tendon	-11.086
▁ordered	-11.0869
▁pill	-11.087
▁Then	-11.0878
▁PV	-11.0883
▁Fe	-11.0896
▁leukocyte	-11.0898
▁swallow	-11.0901
org	-11.0903
aroxysmal	-11.0909
▁Fi	-11.0923
17	-11.0938
ins	-11.0941
ster	-11.0945
▁Hematuria	-11.0947
▁distance	-11.0947
▁erythematosus	-11.0947
▁feces	-11.0947
▁drive	-11.0947
▁metastasis	-11.0947
▁Bilateral	-11.0947
▁Craniofacial	-11.0947
▁Situ	-11.0947
▁changing	-11.0947
▁surfactant	-11.0947
▁alternative	-11.0947
Focal	-11.0948
▁basement	-11.0948
uitting	-11.0949
▁peritoneum	-11.0949
▁continuous	-11.0951
▁Toe	-11.0954
25	-11.0956
▁resemble	-11.096
▁secondhand	-11.0964
inactivation	-11.0971
iv	-11.0976
▁persist	-11.0986
▁echo	-11.0987
▁Inherited	-11.0988
▁manag	-11.0988
emia	-11.0988
▁hour	-11.0988
▁assist	-11.0995
AML	-11.0998
contractures	-11.0998
▁Multi	-11.1
long	-11.1
▁Pat	-11.1
minal	-11.1005
▁subtype	-11.1008
▁processed	-11.1008
▁malfunction	-11.1009
▁150	-11.1013
led	-11.1025
▁Mu	-11.1031
▁counts	-11.1032
ud	-11.1037
EP	-11.1041
▁sit	-11.1053
▁Tr	-11.106
▁hear	-11.1063
▁PE	-11.1066
MM	-11.1068
du	-11.1068
monocyt	-11.1068
▁youre	-11.1092
sugar	-11.1095
▁Congesti	-11.11
▁adequate	-11.11
eterogeneous	-11.1111
▁Coffin	-11.1111
▁Plaque	-11.1111
▁predisposition	-11.1111
▁pregnancies	-11.1111
▁volume	-11.1111
▁ventilator	-11.1111
▁Where	-11.1111
▁sedation	-11.1111
viole	-11.1111
▁represent	-11.1111
▁Overweight	-11.1111
▁Ulnar	-11.1111
▁valgum	-11.1111
▁heterotopia	-11.1112
▁drawn	-11.1112
▁trophoblast	-11.1112
▁hallucinations	-11.1114
▁NASH	-11.1118
▁Bili	-11.1118
▁Procedures	-11.1119
iere	-11.1119
▁status	-11.1119
▁suppressor	-11.112
▁established	-11.1121
▁infested	-11.1121
▁Drinking	-11.1124
▁wet	-11.1128
▁complexes	-11.113
▁Cel	-11.1132
▁chorea	-11.1142
▁recognized	-11.1145
▁antitrypsin	-11.1147
▁bed	-11.1148
▁lat	-11.1148
▁angiotensin	-11.1151
▁indicates	-11.116
proliferation	-11.1164
adulthood	-11.1165
▁actions	-11.1166
CNS	-11.1167
▁coli	-11.1167
14	-11.1168
▁MEN	-11.117
▁supplement	-11.1171
▁band	-11.1175
▁Male	-11.1178
▁myotonia	-11.1184
▁fibro	-11.1185
▁Chiar	-11.1191
-2-	-11.1196
und	-11.121
▁immunosuppressi	-11.1212
▁catheters	-11.1214
▁Im	-11.1219
izing	-11.1226
▁determin	-11.1227
otal	-11.124
▁Later	-11.1241
HD	-11.1248
▁Tri	-11.1253
▁interest	-11.1263
▁vocal	-11.1277
▁thread	-11.1278
▁Anxiety	-11.1278
▁Department	-11.1278
▁Vasculitis	-11.1278
▁community	-11.1278
▁fungoides	-11.1278
▁lifespan	-11.1278
▁matrix	-11.1278
▁stabilize	-11.1278
▁temporarily	-11.1278
▁dermatomyositis	-11.1278
▁said	-11.1278
▁emission	-11.1278
richoepithelioma	-11.1278
▁breakage	-11.128
▁aid	-11.128
▁lifelong	-11.1282
▁cranio	-11.1284
▁Hip	-11.1284
▁aged	-11.1285
▁Autism	-11.1285
▁fresh	-11.1286
▁Eat	-11.1286
▁bi	-11.1295
▁correctly	-11.1317
CHD	-11.1319
alpha	-11.1335
especially	-11.1335
▁Cho	-11.1337
Bi	-11.1341
▁workers	-11.1342
▁erection	-11.1343
▁burns	-11.1343
▁murmur	-11.1343
▁variation	-11.1344
▁hope	-11.1348
▁decisions	-11.1358
CA	-11.1397
▁biologic	-11.1411
bnormalities	-11.1416
▁Myalgi	-11.1418
neurotransmitter	-11.144
▁helping	-11.1441
▁Lange	-11.1445
berg	-11.1446
▁aware	-11.1447
▁compos	-11.1447
▁Dysplasia	-11.1447
▁homocystinuria	-11.1447
▁Ulcer	-11.1447
▁ultra	-11.1447
▁Remov	-11.1447
▁Home	-11.1447
▁Stick	-11.1447
▁XIII	-11.1448
▁shunt	-11.1448
▁Rheumato	-11.1448
▁core	-11.145
▁lipodystrophy	-11.1454
▁detection	-11.1456
▁written	-11.1456
▁Dis	-11.1463
aranasal	-11.1467
▁supplies	-11.1469
PA	-11.1478
▁Ar	-11.148
over	-11.1488
▁washing	-11.1491
▁connected	-11.1494
▁ACE	-11.1499
▁rid	-11.1502
isproportionate	-11.1504
aplasia	-11.1507
▁cardiologist	-11.1514
▁chamber	-11.1516
protein	-11.152
▁Micro	-11.1522
▁lipids	-11.1527
▁apraxia	-11.1541
37	-11.1543
▁murmurs	-11.1552
salt	-11.158
▁deaths	-11.1588
▁Epidermolys	-11.1595
▁flowing	-11.1597
-3	-11.1601
▁crowd	-11.1604
▁prognathi	-11.1607
▁Frequent	-11.1608
▁fold	-11.1617
olichocephaly	-11.1619
▁Colitis	-11.1619
▁Hemoglobin	-11.1619
▁Society	-11.1619
▁Weill	-11.1619
▁acromegaly	-11.1619
▁connexin	-11.1619
▁cortex	-11.1619
▁gather	-11.1619
▁menstruation	-11.1619
▁Soft	-11.162
▁repetitive	-11.162
▁film	-11.162
▁osteochondromas	-11.162
▁overlapping	-11.162
▁herpes	-11.162
▁comprehensive	-11.162
▁Lymphocyt	-11.1626
▁note	-11.1628
amide	-11.1628
ucher	-11.1631
▁named	-11.1631
▁10,000	-11.1643
ND	-11.1644
▁acyl	-11.1644
▁plastic	-11.1645
▁IIIB	-11.1647
▁nor	-11.1653
▁box	-11.166
▁monitored	-11.1662
▁inward	-11.1668
ogenesis	-11.1675
lasting	-11.1676
made	-11.1685
cardiac	-11.1689
▁Headache	-11.169
▁breasts	-11.1691
▁testicle	-11.1691
▁triglyceride	-11.1692
▁resource	-11.1692
Gout	-11.1698
▁Las	-11.1713
▁cardio	-11.1719
▁transplants	-11.1724
▁sugars	-11.173
arious	-11.1733
used	-11.1741
▁IA	-11.1753
▁collapse	-11.1759
▁Foods	-11.1768
ants	-11.1774
▁behaviors	-11.1775
ni	-11.1775
▁share	-11.1779
ton	-11.1783
ngelman	-11.1787
5-	-11.1792
▁public	-11.1793
▁Europe	-11.1793
▁methylmalon	-11.1795
▁tyrosine	-11.1795
Echocardiography	-11.1795
▁Injuries	-11.1795
▁Pelvi	-11.1795
▁VACTERL	-11.1795
▁elderly	-11.1795
▁exhibit	-11.1795
▁obvious	-11.1795
▁scabies	-11.1795
▁stethoscope	-11.1795
▁track	-11.1795
▁guidelines	-11.1795
▁ALG	-11.1795
▁loud	-11.1795
▁morning	-11.1795
▁proctitis	-11.1796
▁stability	-11.1796
gerated	-11.1796
▁adreno	-11.1798
▁upward	-11.1798
▁Diagnosed	-11.1802
▁nevi	-11.1803
▁shortening	-11.1804
▁VII	-11.1807
tended	-11.1807
PP	-11.1807
▁bronchi	-11.181
may	-11.181
nd	-11.1812
▁diets	-11.1813
▁aldosterone	-11.1814
▁amaurosis	-11.1824
▁creatinine	-11.183
endocrine	-11.1836
▁strain	-11.1836
▁Pra	-11.1837
ckets	-11.1837
▁prescribes	-11.1839
AS	-11.184
▁Nie	-11.1841
▁sal	-11.1841
myelo	-11.1861
tro	-11.1866
▁job	-11.1869
▁co	-11.1872
▁concerns	-11.1879
▁androgen	-11.1883
▁decades	-11.1887
▁2-	-11.1893
▁prevented	-11.191
▁reaching	-11.1912
▁accumulates	-11.1922
hotophobia	-11.1943
▁Bow	-11.1958
▁expand	-11.1958
inna	-11.1962
26	-11.1963
▁quart	-11.1964
NF	-11.1965
mphalocele	-11.1973
oophorectomy	-11.1973
▁Cockayne	-11.1973
▁Lactose	-11.1973
▁femur	-11.1973
▁scaly	-11.1973
▁transducer	-11.1973
▁translocase	-11.1973
▁Swelling	-11.1973
▁immunotherapy	-11.1974
▁Neuropathy	-11.1974
▁assess	-11.1974
▁pounds	-11.1974
▁counselor	-11.1974
▁glomerulopathy	-11.1974
▁Retinopathy	-11.1974
▁Nephropathy	-11.1974
▁tenderness	-11.1974
▁catheterization	-11.1974
▁st	-11.1975
▁septum	-11.1977
▁defined	-11.1977
MT	-11.1978
ru	-11.198
▁machines	-11.198
▁distant	-11.1981
▁subunits	-11.1981
▁Episod	-11.1986
AN	-11.1987
Willi	-11.1987
▁inappropriate	-11.1992
27	-11.2003
det	-11.2004
▁PDA	-11.2014
▁branch	-11.2018
lu	-11.202
▁thumbs	-11.202
▁cured	-11.2021
▁PC	-11.2023
articularly	-11.2033
▁ch	-11.2041
classic	-11.2042
▁juice	-11.2051
▁toxin	-11.2052
▁measurement	-11.2053
▁adenomas	-11.2056
trin	-11.2057
non	-11.2059
that	-11.2061
▁blocking	-11.2064
▁glioma	-11.2081
▁peri	-11.2087
entric	-11.2105
▁en	-11.2105
▁pus	-11.2119
MS	-11.2144
ossible	-11.2153
rolonged	-11.2153
yruvate	-11.2155
steopetrosis	-11.2155
scapulo	-11.2155
▁Chorea	-11.2155
▁Difficult	-11.2155
▁Williams	-11.2155
▁bathroom	-11.2155
▁improving	-11.2155
▁laxity	-11.2155
▁oxalate	-11.2155
▁somewhat	-11.2155
▁Pneumonia	-11.2155
▁Aganglion	-11.2155
▁chickenpox	-11.2155
▁osteosarcoma	-11.2155
▁Robinow	-11.2155
▁microsomia	-11.2155
▁Iris	-11.2155
▁Wolff	-11.2156
▁Anyone	-11.2156
▁colonoscopy	-11.2156
▁Kall	-11.2157
▁HSP	-11.2159
▁tool	-11.2159
▁lipase	-11.2159
▁crawling	-11.216
▁Chorioretin	-11.216
▁protection	-11.2162
▁Parents	-11.217
▁Bowe	-11.2171
febrile	-11.2171
▁effectiveness	-11.2172
▁initially	-11.2183
▁IB	-11.2186
neuromuscular	-11.2187
▁designate	-11.2191
▁medullar	-11.2194
▁flattened	-11.2198
rd	-11.2202
▁DVT	-11.2207
▁arched	-11.221
▁conducted	-11.2211
▁compar	-11.2212
▁lymphocyt	-11.2212
hepatomegaly	-11.2214
brain	-11.2221
▁PI	-11.2226
Watch	-11.2227
epilepsy	-11.2228
cular	-11.2231
▁safely	-11.2233
▁falling	-11.2235
HM	-11.2235
▁imbalance	-11.2235
borne	-11.2237
▁ankle	-11.2237
▁Arteri	-11.2238
▁spasm	-11.2253
▁Fat	-11.2266
▁bites	-11.2278
EN	-11.2288
Linda	-11.2293
amine	-11.2295
pt	-11.2301
▁diagnoses	-11.2304
aged	-11.2309
EE	-11.231
stationary	-11.2317
ries	-11.2336
▁push	-11.2338
▁CACNA	-11.234
hondrocalcinosis	-11.234
rhabdomyosarcoma	-11.234
▁Lynch	-11.234
▁Surgical	-11.234
▁Triangular	-11.234
▁brother	-11.234
▁burden	-11.234
▁hysterectomy	-11.234
▁nephritis	-11.234
▁pericarditis	-11.234
▁rheumatic	-11.234
▁pool	-11.234
▁metatars	-11.2341
▁ependymoma	-11.2341
▁instability	-11.2341
▁toilet	-11.2341
▁frontotemporal	-11.2341
▁Know	-11.2341
▁tendency	-11.2341
▁Aging	-11.2342
▁outward	-11.2342
▁911	-11.2343
▁Typically	-11.2343
▁Advanced	-11.2347
lipo	-11.2349
steogenesis	-11.235
▁Immunodeficienc	-11.2351
▁anyone	-11.2352
▁molecular	-11.2352
▁VUR	-11.2355
fi	-11.2356
▁auto	-11.2356
▁worsening	-11.2357
▁Dan	-11.2359
▁Nasal	-11.236
▁successfully	-11.2361
▁3.	-11.2364
▁sweats	-11.2364
▁instances	-11.2371
▁nuts	-11.2375
acral	-11.2381
▁intermittent	-11.2382
▁thinners	-11.2392
TS	-11.2405
▁aura	-11.2408
▁reache	-11.2413
than	-11.2416
density	-11.2416
thyroid	-11.2416
liza	-11.2417
regional	-11.2418
MO	-11.2419
▁intensive	-11.2419
▁thinning	-11.242
early	-11.2422
▁difference	-11.2426
▁uremic	-11.2432
▁situations	-11.2432
▁container	-11.2433
▁gl	-11.2442
han	-11.2444
▁Generally	-11.2445
rognathia	-11.2446
▁limiting	-11.2457
▁original	-11.2468
▁going	-11.247
▁died	-11.2474
▁obstructi	-11.2494
cr	-11.2511
stitutes	-11.2512
▁proportion	-11.2515
▁tibia	-11.2522
si	-11.2522
▁bag	-11.2524
▁tall	-11.2525
▁Muscul	-11.2526
icrodontia	-11.2528
shun	-11.2528
ssential	-11.2529
▁mirror	-11.2529
utoimmunity	-11.2529
▁Eventually	-11.2529
▁Fragile	-11.2529
▁Gardner	-11.2529
▁Oxygen	-11.2529
▁ectopic	-11.2529
▁keyboard	-11.2529
▁physiology	-11.2529
▁poultry	-11.2529
▁receiving	-11.2529
▁summaries	-11.2529
▁Body	-11.2529
▁arrest	-11.2529
▁clothes	-11.2529
▁extension	-11.2529
▁Axenfeld	-11.2529
▁stairs	-11.2529
▁discharge	-11.2529
▁mask	-11.253
▁retain	-11.2533
ngel	-11.2536
▁ARDS	-11.2539
weg	-11.254
ilar	-11.2546
▁poisoning	-11.2548
▁VHL	-11.2559
▁vas	-11.2571
ay	-11.2576
born	-11.2578
▁IVA	-11.2581
ile	-11.2589
▁capillary	-11.259
▁according	-11.2594
▁aerobic	-11.2594
ize	-11.2596
▁So	-11.2601
Rie	-11.2607
immature	-11.2609
Parkinson	-11.2609
cone	-11.262
▁Cu	-11.262
▁aches	-11.2629
ned	-11.2632
cryptorchidism	-11.2653
by	-11.2678
▁covers	-11.2697
▁Round	-11.2698
▁pull	-11.2707
▁gel	-11.2708
▁tag	-11.2714
▁Vesico	-11.2721
Hopkins	-11.2721
palato	-11.2721
▁Encephalitis	-11.2721
▁Endometri	-11.2721
▁Immune	-11.2721
▁Unfortunately	-11.2721
▁barrier	-11.2721
▁indigestion	-11.2721
▁multiply	-11.2721
▁transaminase	-11.2721
Merzbacher	-11.2721
▁score	-11.2721
▁Coste	-11.2721
▁firm	-11.2721
▁dozen	-11.2722
▁Incontinence	-11.2722
▁brittle	-11.2722
▁giant	-11.2722
▁rice	-11.2722
▁melanocytes	-11.2723
▁breastbone	-11.2723
▁thus	-11.2723
▁dogs	-11.2723
▁Squa	-11.2725
gard	-11.2725
▁Telangiectasia	-11.2725
▁weakens	-11.2725
▁spina	-11.2729
umping	-11.273
hallux	-11.2736
▁injured	-11.2738
▁wake	-11.2738
▁IgG	-11.2747
▁Adren	-11.2748
elf	-11.2756
▁rotate	-11.2758
lets	-11.2761
▁recommends	-11.2763
▁FDA	-11.2767
TM	-11.2783
SE	-11.2785
patella	-11.2804
nystagmus	-11.2805
hypoglycemia	-11.2805
dementia	-11.2805
sodium	-11.2805
blood	-11.2805
▁read	-11.2806
Esc	-11.2807
▁Mi	-11.2807
▁partner	-11.2816
▁astrocytoma	-11.2826
ogenital	-11.2831
mal	-11.2833
▁coordinate	-11.2833
upportive	-11.2835
▁Watch	-11.2841
▁wounds	-11.2851
▁myco	-11.2853
▁articles	-11.2855
▁5-	-11.2858
3-	-11.2861
▁lobe	-11.2864
my	-11.2869
▁alcoholic	-11.288
eurofibromatosis	-11.2883
▁graft	-11.2886
▁Gout	-11.2886
angi	-11.289
scape	-11.2897
▁hemi	-11.29
▁class	-11.2907
mission	-11.2913
nc	-11.2914
▁erecti	-11.2916
▁uterine	-11.2916
diopathic	-11.2916
eye	-11.2917
minoaciduria	-11.2918
omerulonephritis	-11.2918
ydronephrosis	-11.2918
▁Allergy	-11.2918
▁Epilepsy	-11.2918
▁Exposure	-11.2918
▁Mediterranean	-11.2918
▁Speech	-11.2918
▁bronchiectasis	-11.2918
▁brush	-11.2918
▁closure	-11.2918
▁criteria	-11.2918
▁driving	-11.2918
▁figure	-11.2918
▁lysosomal	-11.2918
▁malrotation	-11.2918
▁predispose	-11.2918
▁wheezing	-11.2918
▁Degeneration	-11.2918
▁Further	-11.2918
▁nitrogen	-11.2918
▁nigricans	-11.2918
▁nocturnal	-11.2918
▁botulism	-11.2918
▁ferritin	-11.2918
▁depletion	-11.2918
▁Prediabetes	-11.2918
▁radi	-11.2918
▁circulation	-11.2918
▁daytime	-11.2919
eatures	-11.2919
▁proposed	-11.2921
▁Coat	-11.2922
March	-11.2923
▁limits	-11.2923
▁thickened	-11.2924
▁relaxation	-11.2924
▁boost	-11.2924
▁inhaled	-11.2926
usually	-11.2928
▁Asia	-11.2932
▁acro	-11.2939
▁catch	-11.2943
▁fissures	-11.295
▁diverticula	-11.2951
▁diuretics	-11.2954
▁ilia	-11.2959
▁Sand	-11.2961
ip	-11.2962
▁follicles	-11.2968
▁permanently	-11.297
edl	-11.2973
▁IIIA	-11.2974
sin	-11.298
▁MDS	-11.2992
▁hemangioma	-11.2992
▁hypertroph	-11.2993
▁creams	-11.2996
ptosis	-11.3003
normal	-11.3004
tiredness	-11.3005
functional	-11.3007
toxic	-11.301
llo	-11.301
▁decade	-11.3014
▁triple	-11.3016
NA	-11.3018
▁osteogenesis	-11.3023
CSF	-11.3045
▁dihydro	-11.3055
▁cap	-11.3057
ha	-11.306
▁plans	-11.3064
melano	-11.3073
pect	-11.3076
▁Pulmon	-11.3078
lia	-11.308
CMT	-11.3095
▁responds	-11.3098
▁differently	-11.3112
▁muscula	-11.3115
▁inject	-11.3116
ngioendothelioma	-11.3118
▁Effects	-11.3118
▁Knee	-11.3118
▁applied	-11.3118
▁exclusively	-11.3118
▁unexplained	-11.3118
▁womb	-11.3118
▁ornithine	-11.3118
▁Dehydration	-11.3118
▁Education	-11.3118
▁Tarsal	-11.3118
▁flexion	-11.3118
▁vital	-11.3118
▁plexus	-11.3118
▁myelofibrosis	-11.3118
▁plasminogen	-11.3118
▁ease	-11.3118
▁childbirth	-11.3119
▁alae	-11.3119
▁assembly	-11.312
▁foodborne	-11.312
▁approaches	-11.312
sani	-11.3122
▁milligram	-11.3123
▁mmHg	-11.3123
▁dense	-11.3124
▁fourth	-11.3128
▁asymptomatic	-11.3131
▁amputation	-11.3133
soriasis	-11.3133
▁Cold	-11.3136
▁participate	-11.3136
▁Ch	-11.3136
▁capillaries	-11.3137
subcortical	-11.314
▁inactive	-11.3145
▁RDS	-11.3148
▁lying	-11.3148
oyer	-11.3149
mong	-11.3151
bsence	-11.3151
▁Per	-11.3151
▁carboxylase	-11.3153
▁prematurely	-11.3153
▁blasts	-11.3155
ning	-11.3158
▁umbilic	-11.3163
▁meats	-11.317
▁thiamine	-11.3172
AG	-11.3174
▁gastro	-11.3175
3,	-11.3178
focused	-11.3181
▁resistant	-11.3191
36	-11.3196
tis	-11.3202
▁watery	-11.3207
stimulat	-11.3208
▁neuron	-11.321
tter	-11.3211
lung	-11.3211
▁spreading	-11.3214
EB	-11.3216
▁relapse	-11.3217
▁odor	-11.3217
▁leaves	-11.3218
▁fevers	-11.3226
xcessive	-11.3243
end	-11.3266
▁oto	-11.3269
-4	-11.3271
▁strengthen	-11.3292
▁Mil	-11.3294
eutz	-11.3311
▁combine	-11.3319
▁oxidati	-11.332
lbow	-11.3321
▁Hippel	-11.3322
feld	-11.3322
zygo	-11.3322
▁CADASIL	-11.3322
▁HSAN	-11.3322
▁Reference	-11.3322
▁definitive	-11.3322
▁eight	-11.3322
▁jerking	-11.3322
▁nostrils	-11.3322
▁surgeries	-11.3322
▁twitching	-11.3322
Mowat	-11.3322
▁dimple	-11.3322
▁recycle	-11.3322
▁Myelodysplastic	-11.3322
▁household	-11.3322
lait	-11.3323
▁smokers	-11.3323
▁SOX	-11.3325
▁Spre	-11.3328
ze	-11.3332
ostnatal	-11.3332
▁pure	-11.3334
ure	-11.3344
▁reactive	-11.3346
▁CD	-11.3351
ue	-11.3351
aut	-11.3351
▁posture	-11.3352
▁disc	-11.3355
▁17-	-11.336
ttention	-11.336
eptic	-11.3363
▁Dys	-11.3367
uit	-11.337
▁wires	-11.3375
▁turns	-11.3377
▁rodents	-11.3381
▁Platelets	-11.3383
don	-11.3383
▁cleaning	-11.3396
▁Vaccines	-11.3403
23	-11.3407
▁adenomato	-11.3409
where	-11.3412
limb	-11.3416
▁cigarettes	-11.3416
OS	-11.3416
rash	-11.3417
treatment	-11.3418
▁oil	-11.3418
nasal	-11.3423
▁leave	-11.3426
GA	-11.3426
▁deposit	-11.3427
rin	-11.3429
▁label	-11.3431
▁rang	-11.3438
▁activated	-11.344
▁viewing	-11.3455
nox	-11.3456
For	-11.3462
▁colored	-11.3473
▁HP	-11.3476
hyper	-11.3489
▁ion	-11.3492
▁Clinic	-11.35
▁locate	-11.3518
▁patch	-11.352
bind	-11.3526
▁axons	-11.3527
▁none	-11.3528
tandard	-11.3529
▁Pallister	-11.353
▁insect	-11.353
menopausal	-11.353
▁Asperger	-11.353
▁Atresia	-11.353
▁Mntrier	-11.353
▁alkaline	-11.353
▁angiography	-11.353
▁gadolinium	-11.353
▁pacemaker	-11.353
▁vitelliform	-11.353
▁leptin	-11.353
▁plent	-11.353
▁Whipple	-11.353
▁Kyphoscolio	-11.353
▁synthetic	-11.353
▁staff	-11.353
▁Lymphedema	-11.353
▁extragonadal	-11.353
▁Lafor	-11.3531
▁leakage	-11.3531
myotonic	-11.3531
▁workplace	-11.3531
▁periventricular	-11.3532
▁harmless	-11.3532
▁Call	-11.3533
▁GNA	-11.3533
hre	-11.3534
▁neuralgia	-11.3535
▁segmentation	-11.3536
▁50,000	-11.3538
▁mixed	-11.3544
oproliferative	-11.3544
▁leiomyomatosis	-11.3546
yperlordosis	-11.3555
▁Sub	-11.3556
ko	-11.3561
pproved	-11.3561
▁FG	-11.3561
trio	-11.3563
▁antidepressants	-11.3564
▁Stop	-11.357
▁fontanelles	-11.3571
▁Gl	-11.3581
▁wash	-11.3589
▁Preventing	-11.3591
▁Trials	-11.3597
fee	-11.36
splenomegaly	-11.3602
eus	-11.3604
▁achondroplasia	-11.3606
br	-11.3612
▁Excess	-11.3613
▁resolve	-11.3616
negative	-11.363
White	-11.363
fatigue	-11.363
osteogenesis	-11.3633
▁classical	-11.3633
▁relationship	-11.3637
cancerous	-11.3637
▁paraganglioma	-11.3637
▁error	-11.3638
▁fruit	-11.364
▁situation	-11.3642
▁bulge	-11.3643
▁pub	-11.3651
▁ptosis	-11.3651
pre	-11.3657
pontocerebellar	-11.366
▁agent	-11.3666
AK	-11.3668
▁proliferation	-11.3674
shing	-11.3685
Me	-11.3693
XX	-11.3694
▁arises	-11.3695
▁physicians	-11.3695
enter	-11.3699
tracranial	-11.3703
▁cry	-11.3709
▁hairy	-11.3727
▁Episode	-11.3734
▁accurate	-11.3741
ypogonadism	-11.3742
ransient	-11.3742
glucos	-11.3742
▁Artery	-11.3743
▁Calcium	-11.3743
▁Characteristic	-11.3743
▁Pruritus	-11.3743
▁Rapid	-11.3743
▁flexibility	-11.3743
▁fungal	-11.3743
▁lentis	-11.3743
▁overproduction	-11.3743
▁pericardium	-11.3743
▁phosphatase	-11.3743
▁prothrombin	-11.3743
▁writing	-11.3743
▁gastroparesis	-11.3743
▁bulging	-11.3743
▁gastroenteritis	-11.3743
▁psychological	-11.3743
▁serve	-11.3743
▁Apnea	-11.3744
▁BRAF	-11.3744
▁extremities	-11.3746
▁Anonychia	-11.3747
▁lissencephaly	-11.3749
▁adju	-11.3752
▁Specialist	-11.3753
▁vitreous	-11.3754
▁West	-11.3754
▁Professionals	-11.3755
ET	-11.376
▁mechanic	-11.3761
▁myosin	-11.3766
▁coloring	-11.3776
▁ligaments	-11.3782
▁Sa	-11.3806
CD	-11.3808
▁Wor	-11.3812
OP	-11.3818
▁lethargy	-11.383
▁implant	-11.3838
▁ever	-11.3841
▁coordinated	-11.3845
leukodystrophy	-11.3847
degree	-11.3847
▁regional	-11.3847
inflammation	-11.3848
bad	-11.3851
upper	-11.3853
▁concern	-11.3856
▁decision	-11.3856
▁connection	-11.386
placing	-11.3867
▁pumping	-11.3904
▁nipples	-11.3907
▁slowed	-11.3913
▁moles	-11.3917
22	-11.3932
▁progressively	-11.3949
▁myastheni	-11.3952
▁numb	-11.3954
▁moist	-11.396
▁Dialysis	-11.396
▁Rhizomeli	-11.396
▁Taper	-11.396
▁Through	-11.396
▁buttocks	-11.396
▁milestones	-11.396
▁syndromic	-11.396
▁Hemorrhag	-11.396
▁reddish	-11.396
▁Hypotension	-11.396
▁Though	-11.396
▁TSC	-11.396
▁speed	-11.396
▁pyridoxine	-11.396
▁Pseudohypo	-11.396
▁acne	-11.396
▁Lumb	-11.3961
▁hygiene	-11.3961
▁compensate	-11.3962
▁comfortable	-11.3962
▁Tracheo	-11.3962
▁sheet	-11.3962
myelination	-11.3963
▁Tietz	-11.3963
▁sial	-11.3965
▁Cardio	-11.3965
oh	-11.3968
▁compartments	-11.3969
▁bacterium	-11.397
void	-11.3972
▁VWD	-11.3974
▁index	-11.3975
skin	-11.3977
▁chILD	-11.3979
▁Antibiotics	-11.3982
▁PSA	-11.3983
eh	-11.3988
▁corn	-11.3993
▁sutures	-11.401
go	-11.4028
▁desp	-11.403
ther	-11.4031
cle	-11.4031
ov	-11.4039
micrognathia	-11.4068
arrhythmia	-11.4069
thalassemia	-11.407
▁Star	-11.4074
hypertelorism	-11.4074
▁neutrophil	-11.4078
solu	-11.4081
renal	-11.4081
▁returns	-11.4088
00-	-11.4094
▁immunosuppress	-11.4095
growth	-11.4097
▁scars	-11.4112
▁completed	-11.4122
fman	-11.4124
▁mix	-11.4125
▁minimize	-11.4132
2)	-11.4133
fan	-11.4136
▁thighs	-11.4144
EL	-11.4145
▁topics	-11.4148
▁creases	-11.4149
▁droop	-11.415
▁Hypopigment	-11.4153
▁120	-11.4155
▁IC	-11.4156
▁harden	-11.416
▁Maj	-11.4165
▁Cyst	-11.4173
▁Magne	-11.4181
▁Swyer	-11.4182
▁vulnerab	-11.4182
▁Cervic	-11.4182
▁angioplasty	-11.4182
▁department	-11.4182
▁depressed	-11.4182
▁fumes	-11.4182
▁lichenoides	-11.4182
▁likelihood	-11.4182
ypodontia	-11.4182
▁anencephaly	-11.4182
▁Collagen	-11.4182
▁Camurati	-11.4182
▁Fetal	-11.4182
▁adopt	-11.4182
▁Abuse	-11.4182
▁magnesium	-11.4182
▁hurt	-11.4183
▁Stones	-11.4183
▁underdiagnosed	-11.4183
▁Colon	-11.4183
▁Birth	-11.4183
▁planning	-11.4184
aresthesia	-11.4185
▁1/2	-11.4186
▁respectively	-11.4186
ellar	-11.4188
▁Gallstones	-11.4188
▁resting	-11.4189
▁gone	-11.4189
▁Period	-11.419
▁fragments	-11.4193
▁Medicaid	-11.4194
▁aphasia	-11.4194
▁vertigo	-11.4194
▁preeclampsia	-11.4197
▁collection	-11.4197
▁MD	-11.4197
▁tonsils	-11.4198
mia	-11.42
▁EPO	-11.4201
▁burst	-11.4204
▁stream	-11.4207
▁cytoskeleton	-11.4212
▁interferon	-11.4213
▁shoes	-11.4214
▁sections	-11.4214
▁CPT	-11.4214
▁SLE	-11.4217
▁aspect	-11.4228
▁Oll	-11.4236
▁adenoma	-11.4239
▁glycine	-11.4241
▁Function	-11.4249
▁50.	-11.425
▁anaplastic	-11.4264
▁audi	-11.4268
atop	-11.4272
▁Of	-11.4274
▁tubules	-11.4283
mas	-11.4288
▁filters	-11.4291
▁labels	-11.4295
ectoderm	-11.4297
sometimes	-11.4297
iris	-11.4298
▁receives	-11.4302
▁purpose	-11.4303
▁hospitals	-11.4304
▁pulse	-11.4305
▁Moe	-11.4306
pityriasis	-11.431
40	-11.4316
▁minute	-11.4321
▁lo	-11.4323
hy	-11.4324
DS	-11.4326
▁cigarette	-11.433
16	-11.4335
▁mal	-11.435
▁am	-11.4353
oscopy	-11.4358
▁supra	-11.4369
▁Genetics	-11.4382
63	-11.4391
▁prepare	-11.4392
ES	-11.4396
▁tap	-11.44
▁prolactin	-11.4405
steopenia	-11.4407
▁blind	-11.4408
ynophrys	-11.441
▁Blindness	-11.441
▁Breath	-11.441
▁Experts	-11.441
▁antihistamines	-11.441
▁cavities	-11.441
▁communicate	-11.441
▁histories	-11.441
▁ibuprofen	-11.441
▁phosphorylation	-11.441
▁spondylitis	-11.441
▁technology	-11.441
▁ABCB	-11.441
▁Lupus	-11.441
▁heparin	-11.441
▁levodopa	-11.441
▁paternal	-11.441
rought	-11.441
▁Balance	-11.441
▁Sotos	-11.441
▁sonogram	-11.441
▁Atherosclerosis	-11.441
▁endocarditis	-11.441
▁osteopetrosis	-11.441
▁ablation	-11.441
▁conception	-11.441
▁biopsies	-11.441
▁nature	-11.441
lectroretinogram	-11.441
▁erythroderma	-11.441
▁Approaches	-11.441
▁final	-11.441
▁Good	-11.441
▁digits	-11.441
▁semen	-11.441
▁yellowish	-11.441
▁unbalanced	-11.441
▁uncomfortable	-11.441
▁downward	-11.4411
▁Full	-11.4411
▁cloudy	-11.4412
▁Open	-11.4412
eters	-11.4412
compulsive	-11.4412
▁heme	-11.4413
▁heartburn	-11.4413
▁remodeling	-11.4414
▁convers	-11.4414
▁fist	-11.4415
Ora	-11.4415
▁Webb	-11.4416
Engelman	-11.4422
▁Here	-11.4425
diaphyse	-11.4426
▁genetically	-11.4437
XXYY	-11.4437
▁Oh	-11.4445
▁kyphoscoliosis	-11.4453
▁handle	-11.4456
rachnodactyly	-11.4459
Black	-11.446
▁Bu	-11.4471
▁South	-11.4471
▁consistent	-11.4475
▁tender	-11.4479
FA	-11.4495
▁leaking	-11.4495
rine	-11.4502
tinel	-11.4504
SP	-11.4508
eys	-11.4516
health	-11.4522
ium	-11.4524
myopathy	-11.4525
uremic	-11.453
central	-11.453
VA	-11.4532
hypo	-11.455
jar	-11.4556
▁tubule	-11.4561
tor	-11.4561
HS	-11.4607
OR	-11.4609
▁investigat	-11.4617
yperhidrosis	-11.462
▁War	-11.4621
▁Vo	-11.4629
▁brief	-11.4631
▁Recent	-11.4631
ietz	-11.464
▁nasopharyn	-11.4641
▁select	-11.4641
ominant	-11.4641
ammaglobulinemia	-11.4642
cyclophosphamide	-11.4642
hypophosphatasia	-11.4642
stigmatism	-11.4642
▁Hyperthyroidism	-11.4642
▁Hypokalemi	-11.4642
▁Klebsiella	-11.4642
▁Memory	-11.4642
▁Polycythemia	-11.4642
▁Proteus	-11.4642
▁Refsum	-11.4642
▁decreasing	-11.4642
▁dissolve	-11.4642
▁distribution	-11.4642
▁ehrlichiosis	-11.4642
▁framework	-11.4642
▁fungus	-11.4642
Managing	-11.4642
▁Still	-11.4642
▁Brachycephal	-11.4642
▁fungi	-11.4642
▁misshapen	-11.4642
▁numerous	-11.4642
illegal	-11.4642
▁irritable	-11.4642
▁hyperoxaluria	-11.4642
▁Metastatic	-11.4642
▁wild	-11.4642
▁tough	-11.4642
▁excretion	-11.4643
lm	-11.4643
▁maxillary	-11.4643
▁renin	-11.4643
▁Bruis	-11.4643
21.1	-11.4644
tention	-11.4644
▁Incomplete	-11.4647
▁genitourinary	-11.4649
▁constantly	-11.4652
▁chemistry	-11.4657
▁running	-11.4658
▁fails	-11.4659
PR	-11.4665
▁Maje	-11.4666
▁advised	-11.4674
▁restriction	-11.4674
▁positively	-11.4676
▁IVB	-11.4676
ose	-11.4683
ington	-11.4685
▁accident	-11.4685
▁interst	-11.4689
▁ten	-11.4699
▁worms	-11.4705
6-	-11.4707
▁peas	-11.471
▁responses	-11.4725
lit	-11.4734
▁targets	-11.4738
▁surround	-11.4745
hers	-11.4746
-6-	-11.4757
known	-11.4765
Chiar	-11.4767
GTR	-11.4767
found	-11.4768
wide	-11.4769
▁thrombocytopeni	-11.4771
▁preparation	-11.4775
▁culture	-11.4775
▁Sept	-11.4778
fasting	-11.4779
PE	-11.4779
MD	-11.4797
ever	-11.4809
▁genitals	-11.481
▁Bil	-11.4815
nesthesia	-11.4818
▁24-	-11.4822
▁practices	-11.4839
▁choos	-11.4855
terine	-11.486
▁visits	-11.4864
fil	-11.4865
▁establish	-11.4865
secret	-11.4866
▁eosinophils	-11.487
,500	-11.4875
▁Bacteria	-11.4876
▁glob	-11.4878
aginal	-11.4879
eginning	-11.488
Fraumeni	-11.488
▁Involved	-11.488
▁Narcolepsy	-11.488
▁Purpura	-11.488
▁Untreated	-11.488
▁allergy	-11.488
▁ancestry	-11.488
▁beneficial	-11.488
▁facies	-11.488
▁WAGR	-11.488
photosensitivity	-11.488
▁Atrophy	-11.488
▁neurologist	-11.488
▁PAX	-11.488
▁pineal	-11.488
▁TSH	-11.488
orbit	-11.488
▁minimal	-11.488
▁Amyloidosis	-11.488
▁exertion	-11.488
▁handling	-11.488
▁oppos	-11.488
▁duration	-11.4881
▁Viral	-11.4881
▁Report	-11.4881
▁lipomas	-11.4882
▁Fluid	-11.4882
iplegia	-11.4882
horic	-11.4883
▁Menke	-11.4884
▁anytime	-11.4884
▁restless	-11.4884
▁Port	-11.4888
▁IGF	-11.489
▁twenties	-11.489
▁Help	-11.4891
▁sclerae	-11.4892
▁Smith	-11.4895
▁tics	-11.4901
▁drawing	-11.4901
▁Does	-11.4903
▁SA	-11.4903
▁Cilia	-11.4904
BE	-11.4907
▁hypophosphatemi	-11.4912
thin	-11.4912
▁strongly	-11.4913
▁Corticosteroids	-11.4914
lower	-11.4919
▁Rod	-11.492
▁AVMs	-11.4925
photophobia	-11.4928
rocks	-11.4939
▁IBD	-11.4941
CH	-11.4944
)?	-11.4947
▁indicated	-11.4953
tri	-11.4958
pathy	-11.4966
clusion	-11.4971
▁Carcinoma	-11.4973
▁cost	-11.4974
▁IIA	-11.4976
Ki	-11.498
▁blockages	-11.4986
▁neutrophils	-11.4993
▁Second	-11.4998
dysarthria	-11.5009
differentiation	-11.501
stroke	-11.5012
level	-11.5019
▁Disorder	-11.5021
▁Gas	-11.5031
NSAIDs	-11.5034
▁HPS	-11.5035
▁slowing	-11.5041
AL	-11.5044
▁outcome	-11.5045
▁Up	-11.5045
▁ticks	-11.5064
▁Rare	-11.5064
▁dys	-11.5081
vertebrae	-11.5086
▁cant	-11.5094
▁Cough	-11.5096
▁slurr	-11.5102
▁tolerate	-11.5102
▁injure	-11.5103
Gast	-11.5105
olling	-11.5111
▁thirst	-11.5116
▁Rot	-11.5119
▁Rect	-11.5123
clonic	-11.5124
▁Wash	-11.5124
camptodactyly	-11.5124
methylglutacon	-11.5124
rhabdo	-11.5124
▁Aggressive	-11.5124
▁CYLD	-11.5124
▁Prescription	-11.5124
▁Shingles	-11.5124
▁cosmetic	-11.5124
▁macule	-11.5124
▁mercury	-11.5124
▁tarda	-11.5124
▁Luj	-11.5124
▁timing	-11.5124
ficial	-11.5124
▁Hemophilia	-11.5124
▁unique	-11.5124
▁Microtia	-11.5124
▁apply	-11.5124
▁recommendations	-11.5124
▁progeroid	-11.5125
▁Parkinsonism	-11.5125
▁Poland	-11.5125
▁microvascular	-11.5125
▁earlie	-11.5125
▁strep	-11.5125
iant	-11.5126
▁Medscape	-11.5126
oenzyme	-11.5126
▁supplementation	-11.5127
ut	-11.5128
▁cholangitis	-11.5129
▁donated	-11.5129
▁Methylmalon	-11.513
▁varied	-11.5131
▁RMSF	-11.5134
▁Peutz	-11.5137
▁parasitic	-11.5137
▁Restless	-11.5138
dystrophic	-11.5139
▁wrists	-11.5139
▁underarm	-11.514
▁weigh	-11.5141
megaloblastic	-11.5148
comb	-11.5148
▁real	-11.5157
ogenic	-11.5167
▁erosions	-11.5172
drenal	-11.5174
▁para	-11.5181
▁tonic	-11.519
▁bean	-11.5192
▁cereals	-11.5198
LE	-11.5208
ED	-11.5208
▁units	-11.5208
icrocornea	-11.5218
AT	-11.5225
aff	-11.5243
▁GTR	-11.5244
CY	-11.5247
OG	-11.5253
▁lu	-11.5254
▁astrocytomas	-11.5256
Ellis	-11.526
seizure	-11.5261
cerebral	-11.5262
trans	-11.5262
ongoing	-11.5263
▁androgens	-11.5269
▁gra	-11.5269
▁therapeutic	-11.5278
▁transfer	-11.5279
act	-11.5281
▁30%	-11.5291
▁smoked	-11.5295
roy	-11.53
▁closed	-11.53
▁plaques	-11.5301
▁lipoproteins	-11.5329
avan	-11.533
▁May	-11.5333
adipose	-11.5339
▁Con	-11.5344
▁sen	-11.5353
irsutism	-11.5355
▁elastic	-11.5373
ethods	-11.5373
igidity	-11.5374
▁PDGFRA	-11.5374
Hailey	-11.5374
ewish	-11.5374
▁Cigarette	-11.5374
▁Ectoderm	-11.5374
▁Injury	-11.5374
▁Lymphadenopathy	-11.5374
▁Neutropenia	-11.5374
▁carried	-11.5374
▁clumsiness	-11.5374
▁description	-11.5374
▁dolorosa	-11.5374
▁modify	-11.5374
▁occurrence	-11.5374
▁tuberculosis	-11.5374
▁lichen	-11.5374
▁ABCA	-11.5374
▁vestibul	-11.5374
▁Tubul	-11.5374
▁Fras	-11.5374
▁Lesch	-11.5374
▁pigmentosum	-11.5374
▁consumers	-11.5374
▁antiviral	-11.5375
▁silent	-11.5375
acylcarnitine	-11.5375
▁Laron	-11.5375
▁dead	-11.5375
▁coverage	-11.5375
▁Sexual	-11.5376
▁Russ	-11.5376
orner	-11.5376
▁panic	-11.5376
▁protruding	-11.5376
▁organizing	-11.5376
▁classes	-11.5376
▁fire	-11.5377
▁diary	-11.5377
sional	-11.5377
▁Lice	-11.5377
▁fift	-11.5378
▁Ureter	-11.5378
▁valgus	-11.5379
▁DMD	-11.538
owling	-11.538
▁thickness	-11.538
▁cooking	-11.538
▁twisting	-11.5384
▁Resources	-11.5386
▁DBS	-11.5387
▁awareness	-11.5389
▁Cord	-11.5391
▁irritated	-11.5395
ethyltransferase	-11.5397
IC	-11.5398
omas	-11.54
▁HTLV	-11.5402
▁anaplasmosis	-11.5403
▁electrolytes	-11.5407
▁emotions	-11.5407
pes	-11.5417
ubin	-11.5422
▁Medull	-11.5422
parietal	-11.5429
▁checkups	-11.543
za	-11.5431
MC	-11.5431
ities	-11.5431
▁Young	-11.5436
Die	-11.5436
▁canned	-11.5438
▁adding	-11.5441
BO	-11.5444
▁adhesions	-11.5445
▁shots	-11.5461
▁Syndromes	-11.5468
ACD	-11.5476
▁repaired	-11.5477
emic	-11.5483
log	-11.5486
pi	-11.5508
▁et	-11.5509
how	-11.551
intensity	-11.5516
myotonia	-11.5517
fold	-11.5517
▁Gluta	-11.5517
▁totalis	-11.552
higher	-11.5525
▁sibling	-11.5526
▁Plan	-11.5528
▁coming	-11.5528
▁Indian	-11.553
▁direction	-11.5531
▁Art	-11.5573
mun	-11.5582
▁stoma	-11.5585
atten	-11.5589
ina	-11.5591
▁Th	-11.56
▁irritate	-11.5609
▁PR	-11.5616
▁thorough	-11.562
▁Current	-11.562
▁examin	-11.5626
▁Transplant	-11.5629
oked	-11.5629
▁ADAMTS	-11.5629
▁maxilla	-11.563
▁Emotion	-11.5631
▁Esophag	-11.5631
humeral	-11.5631
▁MTHFR	-11.5631
▁Mnire	-11.5631
▁Pompe	-11.5631
▁Treacher	-11.5631
▁cheese	-11.5631
▁diameter	-11.5631
▁disabling	-11.5631
▁effusion	-11.5631
▁hypothalamus	-11.5631
▁malocclusion	-11.5631
▁nosebleeds	-11.5631
▁regurgitation	-11.5631
▁twitches	-11.5631
▁semialdehyde	-11.5631
▁sheath	-11.5631
▁Confusion	-11.5631
▁dentin	-11.5631
▁vitiligo	-11.5631
▁perception	-11.5631
▁hydatid	-11.5631
▁items	-11.5631
▁Pleur	-11.5631
▁Sensor	-11.5632
▁cyclosporine	-11.5634
denosine	-11.5634
▁equally	-11.5636
▁occulta	-11.5638
▁flare	-11.5646
▁Endocrin	-11.5646
▁implanted	-11.5649
▁mildest	-11.5649
▁interventions	-11.5649
dying	-11.5652
omatic	-11.5652
▁match	-11.5653
▁infestation	-11.5653
▁complicated	-11.5653
▁Hairy	-11.5654
▁Valve	-11.5656
mpel	-11.5662
rofaciodigit	-11.5664
▁IIIC	-11.5667
▁ma	-11.5675
tocki	-11.5682
▁ice	-11.5685
▁defenses	-11.5687
▁rises	-11.5701
▁CDA	-11.5703
▁lyase	-11.5704
▁details	-11.5705
▁consume	-11.5709
▁weakening	-11.5712
▁sexually	-11.5714
▁hemophagocyt	-11.5718
▁Larynge	-11.5721
▁surfaces	-11.5721
CR	-11.5721
ntibodies	-11.5722
arrow	-11.5724
Ta	-11.573
▁di	-11.5731
▁siblings	-11.5736
ily	-11.5741
▁23	-11.5743
Gi	-11.5754
▁stand	-11.5759
EC	-11.5761
▁cream	-11.5766
▁LP	-11.5773
nodular	-11.5778
ret	-11.578
jaundice	-11.5781
hypertension	-11.5781
app	-11.5781
year	-11.5782
▁pink	-11.5782
▁jobs	-11.5783
▁span	-11.5786
about	-11.5787
CKD	-11.5789
▁Vaccine	-11.579
▁arterio	-11.5793
▁passage	-11.5793
activated	-11.5796
▁malfunctions	-11.5796
▁Beh	-11.5797
▁measured	-11.5807
▁aggregate	-11.5826
wed	-11.5828
ped	-11.5831
60	-11.5832
77	-11.5835
▁Cavit	-11.5837
▁deficits	-11.5841
▁burn	-11.5852
▁generations	-11.5857
▁chorio	-11.5868
▁encourage	-11.5873
▁releas	-11.5877
▁constant	-11.5883
▁FMR	-11.5893
▁Trunc	-11.5894
▁Urethr	-11.5894
Schei	-11.5894
alactosialidosis	-11.5894
hydrobiopterin	-11.5894
▁Unilateral	-11.5894
▁discoloration	-11.5894
▁subtle	-11.5894
▁trimester	-11.5894
▁urticaria	-11.5894
Meckel	-11.5894
▁Amish	-11.5894
▁cousin	-11.5894
▁gonadotropin	-11.5894
▁vigorous	-11.5894
aboratory	-11.5894
tricho	-11.5894
▁chart	-11.5895
▁scarred	-11.5895
▁Flare	-11.5895
leaving	-11.5896
▁speculate	-11.5897
▁Dystrophy	-11.5898
▁torti	-11.5899
▁Coll	-11.5902
▁thymoma	-11.5902
▁tightly	-11.5904
▁climbing	-11.5904
▁MODY	-11.5904
ogen	-11.5905
▁Amelo	-11.5906
▁Nico	-11.5912
▁hema	-11.5913
▁arthrogryposis	-11.5914
▁purple	-11.5914
▁awake	-11.5916
▁Life	-11.5923
PN	-11.5924
▁randomly	-11.5925
▁Inters	-11.5931
▁butter	-11.5934
▁schwannomas	-11.5934
▁differentiate	-11.5937
ey	-11.594
methyl	-11.5943
▁XI	-11.5948
▁amenorrhea	-11.5948
▁Carne	-11.5953
▁stretching	-11.5959
▁restricted	-11.5961
ator	-11.5962
▁horn	-11.5972
▁fi	-11.5975
ssociated	-11.5984
▁fibula	-11.599
▁socket	-11.5991
▁Glomerul	-11.5994
▁Cha	-11.5998
▁Aplastic	-11.5999
ccelerated	-11.6002
▁pulses	-11.6016
retinal	-11.6019
▁transported	-11.6022
RF	-11.6027
▁feed	-11.6027
qui	-11.6028
CN	-11.6031
ryn	-11.6039
gg	-11.6045
OD	-11.6046
CBC	-11.605
▁Saturat	-11.605
thinning	-11.6051
epithelial	-11.6051
myoclonus	-11.6051
destruction	-11.6052
inherited	-11.6052
▁avoided	-11.6055
▁Ret	-11.6059
developmental	-11.6059
▁cheek	-11.6061
▁technique	-11.6061
more	-11.6061
Olive	-11.6067
minutes	-11.6067
osclerosis	-11.6069
ott	-11.6084
▁hernias	-11.6088
oyamoya	-11.6094
▁130	-11.6103
MPV	-11.6104
▁thalassemias	-11.6105
▁Myco	-11.6107
▁rhythms	-11.6114
▁bloody	-11.6115
ism	-11.6124
Hall	-11.6129
radi	-11.6136
▁Fin	-11.6137
▁metaphys	-11.6138
▁40.	-11.6141
▁assemble	-11.6141
PM	-11.615
▁migraines	-11.6156
▁Perr	-11.6158
oles	-11.6162
▁mosquito	-11.6162
lak	-11.6162
win	-11.6163
▁rigid	-11.6163
▁Erecti	-11.6164
▁register	-11.6164
apan	-11.6164
vasculature	-11.6164
▁Alexander	-11.6164
▁Gilbert	-11.6164
▁Pacific	-11.6164
▁Paralysis	-11.6164
▁Plasma	-11.6164
▁Porphyria	-11.6164
▁Repair	-11.6164
▁Townes	-11.6164
▁cochlea	-11.6164
▁contraceptives	-11.6164
▁disaster	-11.6164
▁disseminate	-11.6164
▁measles	-11.6164
▁melanin	-11.6164
▁methotrexate	-11.6164
▁pharynx	-11.6164
▁steatosis	-11.6164
▁uvula	-11.6164
▁paper	-11.6164
▁thyroxine	-11.6164
carbamyl	-11.6164
▁Cohen	-11.6164
▁angiopathy	-11.6164
▁soap	-11.6164
▁secretion	-11.6164
trathecal	-11.6164
▁dipstick	-11.6164
▁amnio	-11.6164
▁nearsightedness	-11.6164
▁CFTR	-11.6164
▁decarboxylase	-11.6164
▁reticulum	-11.6164
▁cryptogenic	-11.6164
▁undercooked	-11.6165
▁Duct	-11.6165
GAGs	-11.6166
▁uncontrollable	-11.6168
▁constriction	-11.6168
otitis	-11.6168
▁Dysfunction	-11.6169
▁Langer	-11.6169
▁Letharg	-11.6169
▁CA	-11.617
▁unhealthy	-11.6175
PC	-11.6175
▁BPD	-11.6176
▁linear	-11.6176
▁excreted	-11.6178
fibrosarcoma	-11.6179
ownturn	-11.6182
▁tubero	-11.6182
▁IX	-11.6183
▁hemorrhoids	-11.6186
loping	-11.6186
▁hypercalcemia	-11.6191
▁GeneReviews	-11.6191
▁caus	-11.6192
▁Finding	-11.6192
▁specimens	-11.6194
▁10%	-11.6207
▁treatable	-11.6208
▁helix	-11.6213
▁tibial	-11.6214
ocular	-11.6216
ask	-11.6219
▁TV	-11.6223
▁IIB	-11.6225
▁tried	-11.6232
▁contents	-11.6235
▁pet	-11.6238
▁Tim	-11.624
ik	-11.6253
aj	-11.6253
cycl	-11.6255
▁RS	-11.6255
etic	-11.6256
30	-11.6261
▁forearms	-11.6261
▁glucocorticoids	-11.6264
▁stands	-11.6273
▁Ku	-11.6276
stra	-11.6282
vasive	-11.6291
mian	-11.6298
slant	-11.6305
pigmented	-11.6306
surgical	-11.6314
▁juices	-11.6322
inter	-11.6327
Silver	-11.6327
macrocephaly	-11.6328
lethargy	-11.6328
Wilson	-11.6329
feeling	-11.6329
progressive	-11.6329
Your	-11.633
▁clavicle	-11.6337
▁clump	-11.6339
lateral	-11.6343
tosis	-11.635
▁pupils	-11.6356
▁rod	-11.6356
dimen	-11.6356
▁origin	-11.6358
ti	-11.6361
extraocular	-11.6363
neu	-11.6365
▁practice	-11.6368
▁acidic	-11.6376
▁interactions	-11.6387
Pud	-11.6394
▁photo	-11.6394
▁tub	-11.6399
▁Feel	-11.6411
▁tan	-11.642
▁salts	-11.6421
LI	-11.643
way	-11.6439
▁cones	-11.6439
▁31	-11.6441
▁teenage	-11.6441
▁Organ	-11.6442
ucci	-11.6442
▁Ascites	-11.6442
▁Irritability	-11.6442
▁Laryngomalacia	-11.6442
▁Social	-11.6442
▁Together	-11.6442
▁bananas	-11.6442
▁deaminase	-11.6442
▁felt	-11.6442
▁geographic	-11.6442
▁hematologist	-11.6442
▁pauses	-11.6442
▁possibility	-11.6442
▁precise	-11.6442
▁spherocytosis	-11.6442
▁underwear	-11.6442
▁Hydrops	-11.6442
▁mevalon	-11.6442
▁Neck	-11.6442
▁Should	-11.6442
▁tapeworm	-11.6442
▁pronounced	-11.6442
▁anchor	-11.6442
▁Simple	-11.6442
▁blurry	-11.6442
▁Flu	-11.6442
▁ankylosi	-11.6442
alanine	-11.6442
▁forties	-11.6442
▁doxycycline	-11.6442
▁fibroblast	-11.6442
▁convulsions	-11.6442
▁perineum	-11.6442
▁CMV	-11.6442
▁Tube	-11.6443
▁enhance	-11.6444
▁VIII	-11.6444
▁Sclerosis	-11.6444
▁cow	-11.6445
50	-11.6445
▁packaged	-11.6445
▁tight	-11.6447
▁efficiently	-11.6447
RAC	-11.6447
nold	-11.6448
▁Marrow	-11.6448
AD	-11.6448
▁Hypermetr	-11.6451
ller	-11.6453
▁dryness	-11.6454
▁Hyperactivity	-11.6454
peron	-11.6459
▁Lab	-11.6459
urned	-11.646
▁progesterone	-11.646
▁arch	-11.6466
▁GLUT	-11.6466
MML	-11.6466
lipids	-11.6467
▁DPP	-11.6469
▁Es	-11.647
▁OHS	-11.6472
▁Beck	-11.6479
▁SCID	-11.6482
▁LCAT	-11.6495
▁bend	-11.6497
▁aromatase	-11.6499
ssistive	-11.6502
ephrolithiasis	-11.6506
▁myopia	-11.6512
▁Newborns	-11.6514
▁bruises	-11.6514
supranuclear	-11.6517
▁oranges	-11.652
▁outbreaks	-11.6523
extracellular	-11.6539
▁porphyrias	-11.6543
▁Unusual	-11.6546
▁Support	-11.6559
aller	-11.6564
▁Eas	-11.6579
sized	-11.6584
lite	-11.6587
▁dependent	-11.6591
abnormal	-11.6602
▁Mosaic	-11.6606
▁feels	-11.6609
PH	-11.661
light	-11.6613
often	-11.6614
syndactyly	-11.6615
good	-11.6615
▁Nas	-11.6617
myelitis	-11.6617
axon	-11.6622
▁effort	-11.6623
▁glucocorticoid	-11.6623
down	-11.6624
▁Onset	-11.6626
lar	-11.663
▁bump	-11.6632
trahepatic	-11.6633
RX	-11.6651
dysphagia	-11.6652
▁holes	-11.6656
▁Hispanic	-11.6657
▁SMARCA	-11.6659
▁filam	-11.6682
▁Er	-11.6691
▁hepato	-11.6693
▁achieve	-11.6706
▁acquire	-11.672
nu	-11.6724
Hepatocellular	-11.6727
▁Pancreatitis	-11.6727
▁Pregnant	-11.6727
▁Therapies	-11.6727
▁advice	-11.6727
▁cephalo	-11.6727
▁chordoma	-11.6727
▁deferens	-11.6727
▁hallmark	-11.6727
▁humerus	-11.6727
▁potatoes	-11.6727
▁relapsing	-11.6727
▁residual	-11.6727
▁serving	-11.6727
▁weather	-11.6727
▁Schwartz	-11.6728
bilirubinemia	-11.6728
polysyndactyly	-11.6728
▁desmo	-11.6728
sychologist	-11.6728
▁super	-11.6728
▁marked	-11.6728
▁pollution	-11.6728
▁botulinum	-11.6728
▁sympathetic	-11.6728
▁shallow	-11.6728
▁observation	-11.6728
▁Rock	-11.6729
▁nasopharynx	-11.6729
▁Transplantation	-11.6729
▁Infertility	-11.673
hoff	-11.6731
▁Potassium	-11.6733
▁sustained	-11.6733
▁Made	-11.6734
▁Barth	-11.6734
▁brach	-11.6735
▁cutting	-11.6735
▁soften	-11.6737
▁worker	-11.6737
▁CVID	-11.6743
▁Reduc	-11.6743
▁secrete	-11.6744
▁predominant	-11.6746
rody	-11.6749
Link	-11.6749
▁sticky	-11.6749
▁fronto	-11.6751
hypoventilation	-11.6754
▁assessment	-11.6756
▁hydrops	-11.6756
aw	-11.6757
▁spend	-11.6758
▁MVD	-11.6769
axis	-11.677
ubcutaneous	-11.6771
put	-11.6772
▁dec	-11.6782
▁explor	-11.6788
▁psycho	-11.6794
▁Controll	-11.6799
▁achalasia	-11.6802
chondrogenesis	-11.6808
▁settings	-11.6808
▁Case	-11.6809
▁daughters	-11.6811
▁Ban	-11.6812
▁junctions	-11.6815
TT	-11.6816
▁OI	-11.6816
fo	-11.6829
rr	-11.6832
▁tarsal	-11.6833
ka	-11.6836
▁inhibit	-11.6841
▁provid	-11.6842
▁Bell	-11.685
▁outcomes	-11.6851
▁pair	-11.6851
TR	-11.6852
▁accidents	-11.6856
▁metal	-11.6861
▁contribut	-11.6869
▁seat	-11.6871
▁Rab	-11.6874
ika	-11.6875
▁Acid	-11.688
coarse	-11.6906
brachydactyly	-11.6907
Carcinoma	-11.6908
ultrasound	-11.6909
muscle	-11.6909
polydactyly	-11.6911
TB	-11.6917
▁forearm	-11.6917
▁object	-11.6918
RE	-11.6921
bony	-11.6923
▁earlobe	-11.6924
▁rega	-11.6934
▁methyl	-11.6937
new	-11.6944
▁lacking	-11.6944
▁transplanted	-11.6967
▁tha	-11.6971
tact	-11.6971
▁TIA	-11.6972
▁Fallo	-11.6976
ten	-11.6988
late	-11.699
▁carcinomas	-11.6995
▁electric	-11.6996
XY	-11.6999
ological	-11.7
▁generate	-11.7
▁shed	-11.7005
▁expect	-11.7007
reig	-11.7011
▁occult	-11.7013
▁Crani	-11.7019
▁Conve	-11.7021
▁data	-11.7022
ccipital	-11.7022
▁chicken	-11.7022
dynamic	-11.7022
▁Crigler	-11.7022
hCG	-11.7022
ypochondroplasia	-11.7022
▁Baylisascaris	-11.7022
▁Duoden	-11.7022
▁Hermansky	-11.7022
▁Larsen	-11.7022
▁McCune	-11.7022
▁Sarcoidosis	-11.7022
▁Sodium	-11.7022
▁Vertigo	-11.7022
▁Warfarin	-11.7022
▁azathioprine	-11.7022
▁circumference	-11.7022
▁companies	-11.7022
▁friction	-11.7022
▁identical	-11.7022
▁lentigines	-11.7022
▁odonto	-11.7022
▁oncocytoma	-11.7022
▁ophthalmologist	-11.7022
▁palmitoyl	-11.7022
▁rescue	-11.7022
▁swings	-11.7022
▁ischemia	-11.7022
▁(46,	-11.7022
▁dehydrated	-11.7022
▁polymyositis	-11.7022
HIES	-11.7022
▁biotin	-11.7022
pur	-11.7022
▁Behet	-11.7022
OTC	-11.7022
▁sacrum	-11.7022
▁bigger	-11.7022
▁CAV	-11.7022
▁newer	-11.7023
▁Emer	-11.7023
▁demyelination	-11.7023
▁debilitating	-11.7023
▁backflow	-11.7023
▁Eastern	-11.7023
olu	-11.7024
▁Cranio	-11.7024
van	-11.7027
▁Becker	-11.7027
▁otherwise	-11.7029
▁PTEN	-11.7031
activates	-11.7032
▁empties	-11.7033
▁stronger	-11.7039
▁Levels	-11.7048
▁cords	-11.7056
▁exa	-11.7056
ffer	-11.7058
▁Achondrogenesis	-11.7061
anger	-11.7066
▁crying	-11.7066
bearing	-11.7068
itch	-11.7069
▁Has	-11.7069
▁pads	-11.707
araplegia	-11.7071
hypomyelination	-11.7072
▁weaker	-11.7072
▁CML	-11.7073
▁invade	-11.7075
▁Sider	-11.708
▁plant	-11.7083
stein	-11.7086
▁portions	-11.7089
multifocal	-11.709
▁slower	-11.7093
▁AS	-11.7103
▁hypopharyn	-11.7104
aides	-11.7105
▁clinics	-11.7106
activity	-11.7108
manu	-11.7113
▁granulomato	-11.7114
▁Go	-11.7114
▁digital	-11.713
▁dyserythropoie	-11.7135
▁macrocephaly	-11.7144
Sha	-11.7145
▁Ear	-11.7151
▁Osteo	-11.7159
UK	-11.716
muscular	-11.716
▁29	-11.7165
ham	-11.7167
▁connections	-11.7167
Le	-11.7171
addl	-11.7175
yperpigmentation	-11.7175
▁DH	-11.7176
▁apart	-11.7176
▁senses	-11.7189
dental	-11.719
▁Beth	-11.7192
hydroxy	-11.7193
▁achondrogenesis	-11.72
▁surgeons	-11.7203
pped	-11.7203
eurodegeneration	-11.7207
CM	-11.7208
phy	-11.7209
▁progressing	-11.721
apoptosis	-11.721
alcoholic	-11.7211
leukemia	-11.7212
palate	-11.7213
ibular	-11.7213
ndler	-11.7219
▁therapist	-11.722
▁shot	-11.7221
▁marker	-11.7221
▁monitors	-11.7233
step	-11.7233
Fei	-11.7236
▁Spondyloepi	-11.7241
▁cat	-11.7244
▁unit	-11.7254
▁Hemi	-11.7256
tendin	-11.727
▁thym	-11.7272
▁alleviate	-11.7273
▁var	-11.7281
▁wait	-11.7293
▁47	-11.73
▁Choos	-11.7303
strabismus	-11.7303
parent	-11.7305
ink	-11.7306
fractionat	-11.7323
lender	-11.7323
mooth	-11.7324
▁crack	-11.7324
▁Gerstmann	-11.7325
▁transition	-11.7325
heterotaxy	-11.7325
isomerase	-11.7325
ligohydramnios	-11.7325
mannosidosis	-11.7325
▁Eczema	-11.7325
▁Estrogen	-11.7325
▁Farber	-11.7325
▁Goodpasture	-11.7325
▁Krabb	-11.7325
▁Pachygyria	-11.7325
▁Roberts	-11.7325
▁Substances	-11.7325
▁coffee	-11.7325
▁dizzy	-11.7325
▁experiencing	-11.7325
▁ketones	-11.7325
▁squeezing	-11.7325
▁syrup	-11.7325
▁Mouth	-11.7325
▁pachy	-11.7325
▁histone	-11.7325
▁citrullinemia	-11.7325
▁occipital	-11.7325
arbor	-11.7325
▁Parathyroid	-11.7325
▁shaking	-11.7325
▁teratoid	-11.7325
▁glutar	-11.7325
▁Communication	-11.7325
▁mastocytosis	-11.7325
hydroxysteroid	-11.7325
▁Libr	-11.7325
▁ganglioside	-11.7325
▁phenylalanine	-11.7325
▁scope	-11.7325
▁myopathies	-11.7325
▁pemphigus	-11.7325
▁Localized	-11.7325
▁glasses	-11.7326
▁Classic	-11.7326
▁unsteady	-11.7327
▁phospholipids	-11.7327
▁hemoglobinuria	-11.7328
PBS	-11.7328
▁brisk	-11.7328
▁Combined	-11.733
▁hypocalcemia	-11.7337
▁larvae	-11.7338
▁hospitalized	-11.734
▁eGFR	-11.7341
▁angioedema	-11.7344
450	-11.7349
▁sarcomeres	-11.7349
▁curved	-11.735
▁septo	-11.7351
▁arginine	-11.7351
▁POTS	-11.7351
otic	-11.736
▁messages	-11.7362
▁CAH	-11.7362
rop	-11.7364
Deg	-11.7364
▁probe	-11.7366
▁infrequent	-11.7375
▁Find	-11.7382
▁Defects	-11.7384
▁Inter	-11.7394
▁100%	-11.7399
ynostosis	-11.7405
SF	-11.7408
oculo	-11.7411
thm	-11.7425
▁plants	-11.7433
risomy	-11.7436
ontocerebellar	-11.7445
TX	-11.7445
▁ichthyosi	-11.7445
ethemoglobinemia	-11.7452
Due	-11.7455
onal	-11.7461
▁phases	-11.7461
ologist	-11.7467
▁q	-11.7468
▁Fol	-11.7468
▁differentiation	-11.7469
▁Start	-11.7487
▁trig	-11.7503
ama	-11.7504
edion	-11.7507
▁paraplegias	-11.7512
ign	-11.7518
▁electro	-11.7519
came	-11.752
EXT	-11.7522
Baraitser	-11.7523
tarsal	-11.7523
achondroplasia	-11.7524
resistant	-11.7524
telangiectasia	-11.7524
confusion	-11.7524
chronic	-11.7525
beam	-11.7526
from	-11.7527
fa	-11.753
▁allele	-11.7532
▁spray	-11.7534
▁service	-11.7534
▁Work	-11.7535
▁capit	-11.7543
tel	-11.7545
praxia	-11.7546
ography	-11.7547
CDC	-11.7552
bas	-11.7559
lem	-11.7559
▁Increasing	-11.7564
amp	-11.7581
▁dermato	-11.7584
▁via	-11.7594
NI	-11.7607
▁SP	-11.7608
facio	-11.7612
▁EEC	-11.7616
▁Mc	-11.7629
horeoathetosis	-11.7631
▁ester	-11.7633
rotruding	-11.7635
rognosis	-11.7635
dento	-11.7637
▁Kearns	-11.7637
▁Crouzon	-11.7637
▁Hypotrichosis	-11.7637
hematopoietic	-11.7637
pplies	-11.7637
▁Achondroplasia	-11.7637
▁Carnitine	-11.7637
▁Cartilage	-11.7637
▁Echo	-11.7637
▁FLNA	-11.7637
▁Kennedy	-11.7637
▁Lissencephaly	-11.7637
▁Mucolipidos	-11.7637
▁Observation	-11.7637
▁Pendred	-11.7637
▁RYR	-11.7637
▁autoantibodies	-11.7637
▁cuff	-11.7637
▁goiter	-11.7637
▁progressiva	-11.7637
▁rabies	-11.7637
▁reabsorb	-11.7637
▁shaft	-11.7637
▁urinating	-11.7637
▁waxy	-11.7637
▁HFE	-11.7637
▁Senior	-11.7637
▁protuberans	-11.7637
▁IPF	-11.7637
apanese	-11.7637
▁Microscopic	-11.7637
▁retinoschisis	-11.7637
▁sigmoidoscopy	-11.7637
▁rubber	-11.7637
▁cofactor	-11.7637
22.3	-11.7637
▁root	-11.7637
▁promyelocyt	-11.7637
▁mastectomy	-11.7637
▁strict	-11.7637
▁house	-11.7638
▁Sinusitis	-11.7638
▁undiagnosed	-11.7638
▁season	-11.7638
▁braces	-11.7638
▁Sickle	-11.7638
▁derive	-11.7638
▁reinf	-11.7639
▁travelers	-11.7639
▁Notch	-11.764
▁enteropathy	-11.764
▁trap	-11.764
▁Reye	-11.764
▁relievers	-11.764
▁temporal	-11.7642
▁multicent	-11.7643
herry	-11.7643
▁premutation	-11.7644
▁Native	-11.7645
21	-11.7647
ists	-11.765
microcytic	-11.7653
▁Sjogren	-11.7654
▁wheat	-11.7654
▁lifting	-11.7654
mark	-11.7657
▁Gum	-11.7659
▁promptly	-11.7659
▁rehab	-11.7661
▁caregivers	-11.7662
▁encouraged	-11.7662
▁erythropoietic	-11.7662
▁ascites	-11.7665
▁thicker	-11.7665
▁Block	-11.7669
ssisted	-11.767
▁alternat	-11.7671
seen	-11.7672
▁warts	-11.7681
▁Gastro	-11.7684
▁synthesis	-11.7687
▁teach	-11.7694
pen	-11.7694
▁obstruct	-11.7696
FAP	-11.7698
fla	-11.77
▁Stevens	-11.7701
▁Restricti	-11.7711
▁granulomas	-11.7717
kam	-11.7717
ogg	-11.7721
▁makeup	-11.7724
▁Widely	-11.7725
gram	-11.7732
▁activate	-11.774
▁cats	-11.7746
▁gingiva	-11.7749
but	-11.7751
RPS	-11.7751
thrombotic	-11.7752
urethr	-11.7753
▁stimulat	-11.7755
▁clavicles	-11.7756
conjugated	-11.7757
▁rods	-11.776
▁passages	-11.7763
wim	-11.7765
fet	-11.7782
hepatic	-11.7783
0%	-11.7787
▁hypertelorism	-11.7807
▁Robin	-11.7816
PT	-11.7817
RNA	-11.7817
erious	-11.7829
ow	-11.7836
▁creat	-11.7841
▁Nev	-11.7843
vitamin	-11.7844
mutated	-11.7847
fiber	-11.7848
Say	-11.785
white	-11.7852
▁regimen	-11.7855
▁San	-11.7857
HLA	-11.7858
▁friend	-11.7858
▁lymphomas	-11.7862
▁septa	-11.787
GLI	-11.7878
aline	-11.7878
▁granul	-11.7885
▁miscarriage	-11.7886
LP	-11.7889
TA	-11.789
▁created	-11.7891
▁ready	-11.7892
vit	-11.7893
▁requir	-11.7896
plegia	-11.7897
NT	-11.7901
funde	-11.7909
▁Trache	-11.7912
▁Ny	-11.7912
Gra	-11.7913
▁arachnodactyly	-11.7914
▁continu	-11.7919
XYY	-11.7921
hap	-11.7936
▁discover	-11.7937
▁du	-11.7939
▁fuse	-11.7941
ada	-11.7941
alves	-11.7942
▁vani	-11.7943
base	-11.7947
▁poison	-11.7947
SCA	-11.7948
▁slight	-11.795
stle	-11.7951
mel	-11.7952
▁abscess	-11.7958
hydroxyglutar	-11.7959
▁danger	-11.7959
rnithine	-11.796
Ashkenazi	-11.796
Prenatal	-11.796
chothiodystrophy	-11.796
infertile	-11.796
leukodystrophies	-11.796
yperextensible	-11.796
▁Anencephaly	-11.796
▁Bronchiectasis	-11.796
▁CEBPA	-11.796
▁Clubbing	-11.796
▁Coloboma	-11.796
▁Floating	-11.796
▁Malformation	-11.796
▁Manual	-11.796
▁Parkes	-11.796
▁Werner	-11.796
▁adenocarcinoma	-11.796
▁appendix	-11.796
▁choking	-11.796
▁cystinosis	-11.796
▁element	-11.796
▁enjoy	-11.796
▁facilities	-11.796
▁fasciitis	-11.796
▁foramina	-11.796
▁margarine	-11.796
▁occiput	-11.796
▁oropharynx	-11.796
▁pilaris	-11.796
▁shellfish	-11.796
▁steatocystoma	-11.796
▁unwanted	-11.796
▁vermis	-11.796
▁Agency	-11.796
▁POLG	-11.796
▁dried	-11.796
▁mannose	-11.796
eoplastic	-11.796
▁neuropathies	-11.796
delta	-11.796
▁Variations	-11.796
▁puncture	-11.796
▁exudat	-11.796
▁emphysema	-11.796
▁HBA	-11.796
pterin	-11.796
▁cystocele	-11.796
▁continued	-11.796
▁degenerative	-11.796
▁xanthomatosis	-11.796
▁Diverticular	-11.796
▁category	-11.796
▁Adam	-11.796
TEF	-11.796
▁dysautonomia	-11.796
▁universalis	-11.796
▁caverno	-11.7961
▁urgent	-11.7961
▁tightness	-11.7961
dermatoglyphics	-11.7961
▁Fibrosis	-11.7963
▁2/2	-11.7963
▁hospitalization	-11.7963
▁Pierre	-11.7966
▁hiccups	-11.7968
▁sand	-11.7969
thirds	-11.7969
otomy	-11.7971
▁irritants	-11.7972
▁Fish	-11.7972
20-	-11.7973
alivary	-11.798
▁amelogene	-11.798
▁Char	-11.7983
▁Choose	-11.7984
latent	-11.7989
▁prepared	-11.799
asis	-11.7992
▁erythrocyte	-11.7992
rand	-11.7994
▁autistic	-11.7997
anic	-11.7998
70	-11.8004
▁grafting	-11.8013
▁lotion	-11.8015
ault	-11.8021
▁tropic	-11.8024
▁tearing	-11.8027
▁proteinosis	-11.8028
▁PCH	-11.8038
▁Arterio	-11.8044
▁anosmia	-11.8051
enz	-11.8053
take	-11.8059
men	-11.8062
ontact	-11.8068
▁5,000	-11.8071
OM	-11.8073
▁Weber	-11.8088
titis	-11.8094
▁CBC	-11.8098
▁segmental	-11.8105
▁intensity	-11.8106
▁reliev	-11.8108
▁bio	-11.811
▁accidental	-11.8117
part	-11.8119
▁resolves	-11.8122
ypohidrosis	-11.8134
TL	-11.8141
unt	-11.8143
▁homes	-11.8167
▁traveling	-11.8168
endor	-11.817
turning	-11.8178
philtrum	-11.818
fight	-11.818
HDL	-11.8183
▁background	-11.8187
▁noise	-11.8189
wy	-11.819
▁deal	-11.8201
▁atel	-11.8205
▁regulated	-11.8206
▁bar	-11.8209
▁got	-11.821
veryone	-11.8215
ade	-11.8228
PV	-11.8232
article	-11.8234
yers	-11.8245
HE	-11.8246
nish	-11.8261
▁tighten	-11.8261
▁vomit	-11.8262
MDS	-11.8265
Dub	-11.8265
steomyelitis	-11.8271
▁attempt	-11.8278
▁Tu	-11.8281
ultifocal	-11.8283
▁tr	-11.8283
ches	-11.8285
que	-11.8287
▁switch	-11.8291
▁pouch	-11.8291
▁melanocyt	-11.8291
headedness	-11.8292
▁psoria	-11.8292
▁Birt	-11.8293
Disseminat	-11.8293
rticaria	-11.8293
▁neighbor	-11.8293
ARGE	-11.8293
Brooke	-11.8293
Ruvalcaba	-11.8293
Spiegler	-11.8293
renaunay	-11.8293
sphenoid	-11.8293
▁Lactic	-11.8293
▁Recovery	-11.8293
▁Retinoblastoma	-11.8293
▁baked	-11.8293
▁confine	-11.8293
▁dilation	-11.8293
▁erythromelalgia	-11.8293
▁intercourse	-11.8293
▁maltophilia	-11.8293
▁radiosensitizer	-11.8293
▁reflect	-11.8293
▁smear	-11.8293
▁stockings	-11.8293
▁uncontrollably	-11.8293
▁worry	-11.8293
acroglobulinemia	-11.8293
▁follicular	-11.8293
▁interval	-11.8293
▁modification	-11.8293
▁sunscreen	-11.8293
▁traditional	-11.8293
ofibrillar	-11.8293
▁Asbestos	-11.8293
▁Trauma	-11.8293
▁fibromatosis	-11.8293
▁misdiagnosed	-11.8293
▁Immunotherapy	-11.8293
▁Androgen	-11.8293
ndini	-11.8293
▁hunger	-11.8293
▁moisture	-11.8293
▁isolation	-11.8293
ppler	-11.8293
▁sweet	-11.8293
▁keratosis	-11.8294
▁winter	-11.8294
▁peak	-11.8294
▁SHFM	-11.8294
▁Acromegaly	-11.8295
▁Computer	-11.8295
llian	-11.8296
▁afterward	-11.8297
▁nonspecific	-11.8299
▁Tuber	-11.8299
▁Palpitations	-11.8299
▁CPAP	-11.83
▁Various	-11.83
▁homocysteine	-11.8303
organ	-11.8308
othy	-11.8309
▁Preco	-11.831
wil	-11.831
▁encode	-11.8311
▁CM	-11.8318
▁Below	-11.8318
cobar	-11.8319
▁pseudohypo	-11.8319
▁sessions	-11.832
▁replication	-11.8322
▁diapers	-11.8323
▁Punctat	-11.8324
▁20,000	-11.8324
ccessory	-11.833
▁TGF	-11.8331
▁incisions	-11.8333
▁adipos	-11.834
▁outdoors	-11.8347
▁appropriately	-11.8347
▁discussed	-11.8348
▁models	-11.8348
too	-11.8349
▁WS	-11.8355
▁cri	-11.8366
▁ev	-11.8368
lamin	-11.8369
▁GERD	-11.8373
▁salty	-11.8375
▁hypokalemi	-11.8375
▁migrate	-11.8377
▁KS	-11.8378
lip	-11.838
▁IL	-11.8382
▁alterations	-11.8397
▁regimens	-11.8402
▁organisms	-11.8408
▁seeking	-11.8412
▁Hormones	-11.8413
▁pairs	-11.8415
▁ringing	-11.8431
▁Cor	-11.8444
gua	-11.8453
septic	-11.8456
▁errors	-11.846
REM	-11.8461
canthosis	-11.8462
▁CN	-11.8467
NE	-11.8473
▁vi	-11.8473
▁hemangiomas	-11.8477
▁lived	-11.8483
hyperlordosis	-11.8489
pert	-11.8496
15	-11.85
cation	-11.8501
▁junction	-11.8504
lomerulopathy	-11.8507
▁bands	-11.8507
steady	-11.8521
calorie	-11.8523
lymphadenopathy	-11.8523
deficient	-11.8523
Weber	-11.8524
factor	-11.8525
infantile	-11.8525
Health	-11.8525
frequency	-11.8525
back	-11.8526
▁Night	-11.8527
conjunctivitis	-11.8529
▁cereal	-11.8534
▁Platelet	-11.8534
they	-11.8536
aco	-11.8547
▁readings	-11.8555
▁Relat	-11.8556
arcinoid	-11.8563
▁carbohydrate	-11.8564
▁explore	-11.8565
▁NCL	-11.859
either	-11.8592
▁stain	-11.8596
ones	-11.8602
MEN	-11.8609
chondromatosis	-11.8621
cataracts	-11.8627
sella	-11.8628
▁hydroxylase	-11.8632
arburg	-11.8632
fer	-11.8633
ech	-11.8633
htm	-11.8634
▁47,	-11.8634
▁reflex	-11.8636
allbladder	-11.8638
▁cortico	-11.8638
phthalmoparesis	-11.8638
▁Buschke	-11.8638
acroglossia	-11.8638
agglutin	-11.8638
▁Complex	-11.8638
▁MERRF	-11.8638
▁Movement	-11.8638
▁Office	-11.8638
▁Philadelphia	-11.8638
▁Raynaud	-11.8638
▁SHORT	-11.8638
▁Urinalysis	-11.8638
▁appointment	-11.8638
▁concentrating	-11.8638
▁consumption	-11.8638
▁endometrium	-11.8638
▁erythropoietin	-11.8638
▁hygroma	-11.8638
▁hyperinsulinism	-11.8638
▁nucleoside	-11.8638
▁oxidoreductase	-11.8638
▁peanut	-11.8638
▁pinworm	-11.8638
▁relay	-11.8638
▁serotonin	-11.8638
▁ubiquitin	-11.8638
Riley	-11.8638
glandular	-11.8638
▁Stool	-11.8638
▁episodic	-11.8638
VLCAD	-11.8638
▁Tibia	-11.8638
▁collarbone	-11.8638
▁judgment	-11.8638
▁varicella	-11.8638
▁methionine	-11.8638
▁torso	-11.8638
▁crises	-11.8638
▁phosphorylase	-11.8638
▁Persons	-11.8638
▁centronuclear	-11.8639
▁isovaler	-11.8639
▁assay	-11.8639
Goldberg	-11.8639
▁Enlargement	-11.8639
▁adverse	-11.8639
▁Study	-11.8639
▁blow	-11.864
▁Mix	-11.864
▁tint	-11.8641
▁Mono	-11.8642
▁cystine	-11.8642
▁LAMA	-11.8643
▁Stag	-11.8644
▁Reduce	-11.8644
▁documented	-11.8645
myalgia	-11.8648
▁metformin	-11.8648
▁symphalangism	-11.8648
▁East	-11.865
▁HHS	-11.865
▁Encephalopath	-11.8652
▁butterfly	-11.8652
time	-11.8652
▁PHA	-11.8654
▁Living	-11.8656
▁abscesses	-11.8662
eri	-11.8663
▁published	-11.8665
anti	-11.8668
▁pyrophosphate	-11.8669
▁tracheo	-11.8669
ency	-11.8669
▁HLH	-11.8669
TEN	-11.8669
▁Cerebro	-11.8673
▁alveoli	-11.868
▁clues	-11.868
▁Immuno	-11.8682
HOX	-11.8686
▁networks	-11.8687
RD	-11.869
▁galactose	-11.8693
head	-11.8696
▁detectable	-11.8699
▁openings	-11.8701
piphyse	-11.8703
73	-11.8704
▁Complement	-11.8706
▁presentation	-11.8707
oprotein	-11.871
▁Initial	-11.8713
▁36	-11.8722
▁organizations	-11.8725
▁Albright	-11.8733
▁veno	-11.8746
EK	-11.8749
▁EDS	-11.875
▁dermatos	-11.8752
/6	-11.8754
rum	-11.8761
▁Ri	-11.8765
cataract	-11.8778
▁directions	-11.8783
GAP	-11.879
ityriasis	-11.8792
FS	-11.8808
▁carrying	-11.8809
lk	-11.8811
zer	-11.8811
▁Few	-11.8814
▁Ach	-11.8822
aste	-11.8822
lveolar	-11.8824
tensive	-11.8834
onic	-11.8839
5,000	-11.885
Ma	-11.8851
ditis	-11.8857
ayan	-11.8859
▁overly	-11.8868
refractory	-11.8879
ESRD	-11.888
osteoporosis	-11.8882
foot	-11.8883
UTI	-11.8883
BMI	-11.8884
▁Aneurysm	-11.889
▁daughter	-11.8891
▁rodent	-11.8892
▁word	-11.8892
▁Mel	-11.8894
▁outbreak	-11.8895
▁CAR	-11.8897
gas	-11.8897
▁Di	-11.8898
▁FH	-11.8905
capillary	-11.8906
▁adolescent	-11.8906
▁pea	-11.891
Ger	-11.8912
▁Kus	-11.8912
rah	-11.8915
lich	-11.8928
▁sh	-11.8928
ouble	-11.893
▁US	-11.8933
section	-11.8933
having	-11.8934
▁immunoglobulins	-11.8936
equin	-11.8948
phro	-11.8953
▁draw	-11.8961
▁scratch	-11.8963
▁swell	-11.8965
thi	-11.8977
▁identifi	-11.898
OX	-11.8985
oping	-11.8988
▁Back	-11.8991
▁contractur	-11.8992
neath	-11.8993
aturity	-11.8994
Strauss	-11.8995
▁tail	-11.8995
▁Ortho	-11.8995
Radiosensitizers	-11.8995
pouching	-11.8995
▁Aniridia	-11.8995
▁California	-11.8995
▁Encephalocele	-11.8995
▁Lipodystrophy	-11.8995
▁RUNX	-11.8995
▁Symphalangism	-11.8995
▁Vulv	-11.8995
▁abundan	-11.8995
▁cocaine	-11.8995
▁ectopia	-11.8995
▁gently	-11.8995
▁lipopigment	-11.8995
▁ossificans	-11.8995
▁precautions	-11.8995
▁racial	-11.8995
▁request	-11.8995
▁surveillance	-11.8995
▁ventilation	-11.8995
▁volunteer	-11.8995
▁FBN	-11.8995
▁Great	-11.8995
▁obsessive	-11.8995
▁mimic	-11.8995
▁Tyrosinemia	-11.8995
▁enema	-11.8995
▁identification	-11.8995
▁Pachy	-11.8995
▁Freeman	-11.8995
▁syphilis	-11.8995
▁decay	-11.8995
▁Andersen	-11.8995
▁Shock	-11.8995
▁Stiff	-11.8995
▁capsule	-11.8995
▁stuck	-11.8995
▁false	-11.8995
▁conservative	-11.8996
▁proton	-11.8996
▁fifties	-11.8996
▁elasticity	-11.8996
pathi	-11.8996
▁Inhal	-11.8996
minicore	-11.8997
attle	-11.8997
▁performance	-11.8997
▁choroiditis	-11.8997
ediment	-11.8997
▁Why	-11.8997
▁selective	-11.8997
▁arches	-11.8997
amelia	-11.8998
▁birthmark	-11.8999
herma	-11.8999
▁confused	-11.8999
osteopenia	-11.9
▁pose	-11.9
▁LAM	-11.9001
▁CLN	-11.9001
▁Bacterial	-11.9002
iformis	-11.9002
crocyanosis	-11.9004
▁relieved	-11.9004
▁vara	-11.9005
▁thirties	-11.9006
▁survivors	-11.9008
▁bisphosphonates	-11.9012
▁30,000	-11.9012
▁unidentified	-11.9014
▁ML	-11.9014
▁papules	-11.9015
▁ro	-11.9017
agging	-11.902
eningitis	-11.9021
▁199	-11.9022
▁phobia	-11.9023
ysi	-11.9028
▁flaps	-11.9028
▁PWS	-11.9031
ritable	-11.9032
ched	-11.9034
▁multisystem	-11.9036
rubra	-11.904
▁heard	-11.9045
▁screened	-11.9046
▁hypertrichosis	-11.9047
rus	-11.9052
▁coats	-11.9053
▁educational	-11.9063
virus	-11.9065
▁incompatibility	-11.9071
▁ASD	-11.9072
▁Bart	-11.9074
platyspondyly	-11.9076
ril	-11.9077
dom	-11.9081
DR	-11.9083
page	-11.9086
GPI	-11.9087
ented	-11.9105
cornea	-11.9107
▁deficient	-11.9115
hypopigmentation	-11.9116
▁corrected	-11.9116
sco	-11.9117
▁therapists	-11.912
▁simpl	-11.9122
UC	-11.9123
▁fistulas	-11.9135
▁dysphagia	-11.9142
Dre	-11.9142
▁Silver	-11.9145
subunit	-11.9147
▁beef	-11.9152
▁costs	-11.9155
fitting	-11.9157
▁bo	-11.9173
only	-11.919
▁dislocations	-11.9193
▁Caf	-11.9195
steolysis	-11.9202
worm	-11.9206
▁j	-11.9209
▁patella	-11.9209
▁temperatures	-11.9211
▁Abdomin	-11.9244
▁65.	-11.925
green	-11.9252
ACE	-11.9252
mtDNA	-11.9253
yellow	-11.9253
platelet	-11.9253
potassium	-11.9253
short	-11.9253
resection	-11.9255
sensorineural	-11.9256
▁mast	-11.9256
corneal	-11.9257
▁helped	-11.9258
▁vaccination	-11.9259
▁investigation	-11.9261
▁orange	-11.9261
▁thinner	-11.9263
▁Cur	-11.9273
reduced	-11.9275
▁setting	-11.9276
▁playing	-11.9276
▁stressed	-11.9286
bone	-11.9287
▁clinic	-11.9288
▁adhesion	-11.9289
io	-11.93
▁lymphocyte	-11.9307
▁calvari	-11.9324
▁responding	-11.9326
▁exists	-11.9328
▁Su	-11.9328
▁absorbs	-11.9331
▁chains	-11.934
ocrine	-11.9342
ephronophthisis	-11.9343
ella	-11.9345
egen	-11.9345
▁comp	-11.9356
▁porphyrin	-11.9357
▁mode	-11.9357
▁valg	-11.9358
agn	-11.9364
orizontal	-11.9365
achycardia	-11.9365
▁PDGFRB	-11.9365
galactosidase	-11.9365
hrombophlebitis	-11.9365
▁Academ	-11.9365
▁Dopamine	-11.9365
▁FLNB	-11.9365
▁Fruits	-11.9365
▁Greek	-11.9365
▁Hallucinations	-11.9365
▁International	-11.9365
▁Potential	-11.9365
▁TNFR	-11.9365
▁apples	-11.9365
▁arrange	-11.9365
▁bicarbonate	-11.9365
▁broccoli	-11.9365
▁capacity	-11.9365
▁congestion	-11.9365
▁correspond	-11.9365
▁eczema	-11.9365
▁envelope	-11.9365
▁gonads	-11.9365
▁messenger	-11.9365
▁primordial	-11.9365
▁reservoir	-11.9365
▁squeeze	-11.9365
dystroglycan	-11.9365
▁Hypophosphatemi	-11.9365
▁Similar	-11.9365
▁couple	-11.9365
▁foul	-11.9365
▁gaze	-11.9365
▁uncertain	-11.9365
▁genom	-11.9365
▁vasculopathy	-11.9365
Sturge	-11.9365
ligodontia	-11.9365
▁Leyd	-11.9365
▁ratio	-11.9365
▁tortuosity	-11.9366
▁sunburn	-11.9366
▁calculator	-11.9366
▁gloved	-11.9366
▁administration	-11.9366
▁mice	-11.9366
▁woolly	-11.9366
▁seminoma	-11.9366
▁polio	-11.9366
▁Stenosis	-11.9366
▁cytomegalovirus	-11.9366
▁Pediatrician	-11.9366
▁seven	-11.9366
▁elsewhere	-11.9366
▁Norri	-11.9366
▁hoarseness	-11.9366
▁Viruses	-11.9367
▁TARP	-11.9368
kok	-11.9368
▁scanning	-11.9369
▁gli	-11.9369
▁combat	-11.937
▁outlet	-11.937
▁gyrata	-11.9371
▁Marburg	-11.9371
▁circumstances	-11.9371
▁bowed	-11.9373
▁sickness	-11.9373
▁Mandibulo	-11.9374
▁Pear	-11.9375
▁complementary	-11.9376
smelling	-11.9376
▁2009	-11.9378
ILE	-11.9378
▁masses	-11.9378
Hig	-11.9381
bradykinesia	-11.9382
▁hemolysis	-11.9385
flexor	-11.9385
▁Canada	-11.9385
▁allergens	-11.9387
▁beds	-11.9393
▁hyperglycemia	-11.9394
▁300	-11.9398
Ny	-11.94
▁cooked	-11.9403
▁anophthalmia	-11.9407
▁hypertonia	-11.9407
▁MVP	-11.9407
▁NDM	-11.9407
HT	-11.941
▁adapt	-11.9411
▁armpits	-11.9412
▁arteritis	-11.9412
▁Scleros	-11.9417
▁2,000	-11.9419
roken	-11.9423
MCC	-11.9424
▁intravenously	-11.9428
▁Walker	-11.9429
gra	-11.9433
▁statins	-11.9435
▁races	-11.9443
▁Heat	-11.9452
▁preventive	-11.9456
▁realiz	-11.9456
▁itch	-11.9457
▁killer	-11.9457
▁Cl	-11.9463
oplasm	-11.9466
hu	-11.9471
EM	-11.9478
34	-11.9484
urg	-11.9487
▁steady	-11.9493
▁pear	-11.9495
nsw	-11.9496
29	-11.9496
▁Kno	-11.9501
let	-11.9502
nker	-11.9503
▁efforts	-11.9503
▁fix	-11.9505
▁AI	-11.9506
▁apoptosis	-11.9508
SL	-11.951
▁Ki	-11.9511
▁calcifications	-11.9511
▁mini	-11.9512
mbiguous	-11.9513
▁myopath	-11.952
▁Oto	-11.9527
hair	-11.9535
hepato	-11.9535
▁taps	-11.9538
▁entering	-11.9545
▁upset	-11.9546
nati	-11.956
eroderma	-11.9563
ark	-11.9571
▁states	-11.9571
mg	-11.9584
ittle	-11.9585
▁strains	-11.9589
ney	-11.9592
▁thrombo	-11.9593
▁tools	-11.96
2/	-11.9611
▁bath	-11.9615
PCR	-11.9625
immune	-11.9626
▁curve	-11.9626
pallor	-11.9634
NHLBI	-11.9635
midline	-11.9635
polar	-11.9637
alopecia	-11.9637
brown	-11.9637
ichthyosis	-11.9637
deafness	-11.9637
jaw	-11.9637
tissue	-11.9638
This	-11.9638
ean	-11.9642
mail	-11.9644
horn	-11.9645
dactyly	-11.9648
▁500	-11.965
Tay	-11.9652
rab	-11.9666
200	-11.9666
qua	-11.9669
▁TP	-11.9679
▁rub	-11.9684
olytic	-11.9686
▁recogniz	-11.969
pie	-11.9692
▁hydrogen	-11.9692
▁indicat	-11.9699
-10	-11.9705
▁prefer	-11.9707
lein	-11.9712
▁remember	-11.9718
▁pick	-11.972
opathies	-11.9722
lastic	-11.9726
NO	-11.9728
▁Diagnos	-11.9731
ephrocalcinosis	-11.9731
▁path	-11.974
cytes	-11.9743
▁dorsal	-11.9748
▁Melanocyt	-11.9748
▁peroxisom	-11.9748
▁Continu	-11.9749
▁alert	-11.975
physic	-11.975
ndenha	-11.975
▁ophthalmo	-11.975
Chondrodysplasia	-11.975
Korsakoff	-11.975
ypotelorism	-11.975
▁Connexin	-11.975
▁Dwarfism	-11.975
▁Hyperinsulinemi	-11.975
▁Intolerance	-11.975
▁Kabuki	-11.975
▁NLRP	-11.975
▁PRNP	-11.975
▁Polymicrogyria	-11.975
▁Resistance	-11.975
▁Routine	-11.975
▁Understand	-11.975
▁Waldenstr	-11.975
▁diverticulitis	-11.975
▁dystrophies	-11.975
▁erythrocytosis	-11.975
▁familiar	-11.975
▁laxative	-11.975
▁ligase	-11.975
▁sialidosis	-11.975
▁sputum	-11.975
▁subsequent	-11.975
▁triangular	-11.975
▁zinc	-11.975
▁Leukodystroph	-11.975
▁fibronectin	-11.975
▁kept	-11.975
▁spider	-11.975
▁worn	-11.975
▁ATXN	-11.975
▁LRP	-11.975
▁Tricho	-11.975
hydroxyacyl	-11.975
▁angiogram	-11.975
▁CBF	-11.975
▁bleb	-11.975
▁schwannomatosis	-11.975
HLRC	-11.975
▁Pitt	-11.975
▁dispos	-11.975
▁texture	-11.975
▁Left	-11.975
▁sheep	-11.975
▁Dyskinesia	-11.975
▁HBB	-11.975
▁desire	-11.975
▁triad	-11.975
▁agree	-11.975
▁rubella	-11.975
▁OFD	-11.975
▁contagious	-11.975
▁Marine	-11.975
lymphangiectasia	-11.975
▁barium	-11.975
▁multifactorial	-11.9751
▁Meesman	-11.9751
▁pediatrician	-11.9751
▁TRAPS	-11.9751
▁endemic	-11.9751
▁cool	-11.9751
rgic	-11.9751
pitched	-11.9752
▁trout	-11.9752
▁disk	-11.9753
▁Myasthenia	-11.9753
▁underneath	-11.9753
▁Repeated	-11.9753
▁FLC	-11.9753
▁neuralgi	-11.9754
▁suppression	-11.9754
embe	-11.9754
rontotemporal	-11.9754
▁him	-11.9754
▁Nem	-11.9755
hepatocellular	-11.9755
litary	-11.9757
▁Angiotensin	-11.9757
▁lubricated	-11.9757
▁aching	-11.9758
▁conjunctiva	-11.9759
▁lysine	-11.9759
cobalamin	-11.976
▁withdrawal	-11.976
▁administered	-11.976
▁perine	-11.976
▁Car	-11.9761
▁Donnai	-11.9761
▁worm	-11.9765
▁influenza	-11.9766
▁wood	-11.9766
iness	-11.9766
▁Trig	-11.9768
nephrocalcinosis	-11.9769
▁Shprintzen	-11.977
/17	-11.9773
▁star	-11.9773
surgery	-11.9775
encephal	-11.9778
▁darker	-11.9781
▁hemispheres	-11.9781
▁hemiplegia	-11.9783
tract	-11.9784
▁consequences	-11.9786
▁mineralization	-11.9786
▁Fec	-11.979
ypomagnesemia	-11.9797
▁scales	-11.9798
ARBs	-11.9803
uriculo	-11.9811
▁CRE	-11.9814
▁pointed	-11.9815
syncope	-11.9822
vertebra	-11.9836
▁endo	-11.9847
▁histology	-11.9847
▁TK	-11.9847
▁mistakes	-11.9848
row	-11.9857
RIC	-11.9858
Lev	-11.9862
▁hypoplastic	-11.9862
▁pi	-11.9866
▁midline	-11.9868
ology	-11.9872
▁Varico	-11.9874
fuss	-11.9874
▁Dihydro	-11.9877
▁lighter	-11.9883
GAD	-11.9889
▁1%	-11.9893
▁filtered	-11.9893
▁Baraitser	-11.9893
Lun	-11.9895
Lu	-11.9899
ystolic	-11.99
▁digested	-11.9902
▁brachydactyly	-11.9903
proteins	-11.9903
▁AMP	-11.9904
▁digesting	-11.9913
▁Kle	-11.9915
▁nodular	-11.9922
iff	-11.9929
▁Ellis	-11.993
xeroderma	-11.9941
flat	-11.9941
terior	-11.9948
▁acanthosis	-11.995
erve	-11.9952
-6	-11.9967
▁Neoplasms	-11.9977
▁measurements	-11.9978
▁And	-11.9991
gestive	-11.9996
oline	-11.9998
▁Para	-11.9999
▁magnets	-12.0001
unsaturated	-12.0017
▁hy	-12.0022
Che	-12.0033
angle	-12.0034
expressed	-12.0035
hypoplastic	-12.0036
DVT	-12.0037
lymphedema	-12.0037
olyneuropathy	-12.0037
hypospadias	-12.0037
ATP	-12.0039
person	-12.0039
▁lights	-12.0039
idiopathic	-12.0041
▁snack	-12.0044
▁bruise	-12.0046
wasting	-12.0046
▁content	-12.0046
▁follicle	-12.0046
▁wire	-12.0046
EDS	-12.0047
▁Newborn	-12.0048
well	-12.0053
ascend	-12.0059
▁GL	-12.0081
FT	-12.0083
▁dia	-12.0083
▁Cause	-12.009
▁Weak	-12.0091
▁WT	-12.0101
TNF	-12.0107
into	-12.011
lyase	-12.011
▁Arrhythmias	-12.0114
▁chew	-12.0119
▁Drink	-12.0119
▁cur	-12.012
cholinesterase	-12.0123
200,000	-12.0124
rbital	-12.0127
radykinesia	-12.0132
▁APC	-12.0138
solving	-12.0138
mandibular	-12.0146
▁fl	-12.0147
▁prim	-12.0148
xanthoma	-12.0149
eavy	-12.0149
thopedic	-12.015
▁Dermato	-12.015
Emergency	-12.015
steosarcoma	-12.015
tified	-12.015
▁Wernicke	-12.015
isomaltase	-12.015
lagiocephaly	-12.015
occlusive	-12.015
peptidase	-12.015
sternum	-12.015
▁Bronchitis	-12.015
▁Burkitt	-12.015
▁Koolen	-12.015
▁aniridia	-12.015
▁anxious	-12.015
▁arsenic	-12.015
▁bundle	-12.015
▁cabbage	-12.015
▁calcitriol	-12.015
▁cerebrum	-12.015
▁diverticulosis	-12.015
▁hydroxyurea	-12.015
▁imprinting	-12.015
▁lectin	-12.015
▁oatmeal	-12.015
▁projections	-12.015
▁retraction	-12.015
▁shift	-12.015
▁sight	-12.015
▁sucrase	-12.015
pallid	-12.015
▁Alpers	-12.015
▁CATSPER	-12.015
▁Guidelines	-12.015
▁Insomnia	-12.015
▁Lacrim	-12.015
▁labyrinth	-12.015
▁repellent	-12.015
▁Islander	-12.015
▁virtual	-12.015
bullo	-12.015
▁ABCC	-12.015
▁malaria	-12.015
pistaxis	-12.015
▁NOTCH	-12.015
▁PML	-12.015
▁animation	-12.015
▁retroperitone	-12.015
enoch	-12.015
▁stricture	-12.015
▁Preeclampsia	-12.015
▁tricuspid	-12.015
▁nema	-12.015
▁precoci	-12.015
RIT	-12.015
▁bedtime	-12.015
▁unpleasant	-12.015
eason	-12.015
▁valine	-12.015
▁lean	-12.015
▁ingestion	-12.015
▁annual	-12.015
▁Psychosis	-12.0151
ollege	-12.0151
▁hipbone	-12.0151
Myositis	-12.0151
▁Gris	-12.0151
▁MMA	-12.0151
▁nighttime	-12.0151
▁paraparesis	-12.0151
▁Brug	-12.0151
heim	-12.0152
j	-12.0153
▁backward	-12.0153
▁Lym	-12.0154
▁PFIC	-12.0154
▁heel	-12.0154
▁mutase	-12.0156
▁constrict	-12.0157
SEH	-12.0157
itive	-12.0157
▁TOS	-12.0157
▁epithelium	-12.0157
▁irregularity	-12.0157
▁Chole	-12.0157
▁MCKD	-12.0159
▁correction	-12.0159
▁MED	-12.0161
▁patent	-12.0162
▁fetuses	-12.0163
▁Dentin	-12.0164
lacrimal	-12.0168
▁FGF	-12.0172
▁infarction	-12.0172
▁Letha	-12.0174
▁glomerulus	-12.0174
Ald	-12.0175
▁rotavirus	-12.0176
▁HER	-12.0176
▁flushing	-12.018
▁progeria	-12.0181
ARD	-12.0181
▁kyphosis	-12.0185
▁pruritus	-12.0185
yne	-12.0186
▁dopa	-12.019
▁retinoids	-12.0191
▁met	-12.0192
tRNA	-12.0193
▁Coughing	-12.0203
▁favorable	-12.0205
▁optica	-12.0206
▁Van	-12.0208
▁epileptic	-12.0208
▁drooping	-12.0208
▁unilateral	-12.0214
TO	-12.0216
▁electrodes	-12.0217
▁lamella	-12.0219
bri	-12.0221
▁teratomas	-12.0226
chest	-12.0236
ARS	-12.0238
cells	-12.0238
▁infective	-12.0238
▁influences	-12.0239
wine	-12.0242
▁regulator	-12.0243
▁anticonvulsants	-12.0247
▁Wea	-12.0248
bro	-12.0251
▁Ring	-12.0252
moyamoya	-12.0256
▁Gland	-12.026
▁curves	-12.0261
etting	-12.0263
▁NHLBI	-12.0271
reduc	-12.0272
▁AIP	-12.0274
HL	-12.0276
lordosis	-12.0277
▁95	-12.0279
▁ESRD	-12.028
dihydropyrimidin	-12.0282
▁Pol	-12.029
▁substitute	-12.0302
ermost	-12.0305
▁pets	-12.0305
▁retro	-12.0314
▁Indians	-12.0317
zole	-12.0321
▁Hypohidro	-12.0324
▁holding	-12.0332
▁PO	-12.0333
▁Cri	-12.0334
oshi	-12.0335
▁NSAIDs	-12.0343
▁implants	-12.0348
▁mans	-12.0361
▁micrognathia	-12.0362
egmental	-12.0374
9-	-12.0379
LC	-12.0382
▁cycles	-12.0383
▁granuloma	-12.0384
hands	-12.0385
ypopigmentation	-12.0386
illary	-12.0395
inner	-12.0396
DO	-12.0405
Chest	-12.0408
hyperreflexia	-12.0419
▁voiding	-12.0421
▁disproportion	-12.0425
▁calling	-12.0429
▁cramp	-12.0432
Stre	-12.0436
LATE	-12.0438
▁preserve	-12.0448
diuretic	-12.0451
converting	-12.0452
Albright	-12.0452
thiamine	-12.0453
interpret	-12.0454
human	-12.0454
▁mistake	-12.046
hypokalemia	-12.0465
MPS	-12.0466
▁organization	-12.0467
istinctive	-12.0475
▁tea	-12.0478
▁20%	-12.0482
▁anger	-12.0491
vel	-12.0491
▁(1-	-12.0497
95%	-12.051
▁radical	-12.0517
enteric	-12.052
▁circulate	-12.0538
▁disturb	-12.0551
carpo	-12.0552
▁Acro	-12.0553
▁osteodysplastic	-12.0554
omega	-12.0556
▁eventual	-12.0556
▁operations	-12.0556
leido	-12.0558
▁Hair	-12.056
▁Endoscop	-12.0565
▁bird	-12.0565
▁TAR	-12.0566
pyrimidinase	-12.0566
▁sigmoid	-12.0567
ijm	-12.0567
▁Phospho	-12.0567
Thoms	-12.0567
bitus	-12.0567
▁Amnio	-12.0567
▁Consider	-12.0567
▁Glucocorticoid	-12.0567
FUMHD	-12.0567
acetylglutamate	-12.0567
eruloplasminemia	-12.0567
methioninemia	-12.0567
nhidrosis	-12.0567
▁Boston	-12.0567
▁Cyclic	-12.0567
▁DRPLA	-12.0567
▁Dizziness	-12.0567
▁Epithelial	-12.0567
▁Fiber	-12.0567
▁Glanzmann	-12.0567
▁Hyperkalemi	-12.0567
▁Physician	-12.0567
▁SMN	-12.0567
▁Scabies	-12.0567
▁Surviv	-12.0567
▁Vascular	-12.0567
▁WNK	-12.0567
▁acetabul	-12.0567
▁authors	-12.0567
▁encephalocele	-12.0567
▁inadequate	-12.0567
▁infiltrate	-12.0567
▁jerks	-12.0567
▁leucine	-12.0567
▁peptide	-12.0567
▁pinpoint	-12.0567
▁protoporphyria	-12.0567
▁purplish	-12.0567
▁reabsorption	-12.0567
▁rubbing	-12.0567
▁strike	-12.0567
▁vegetarian	-12.0567
floppy	-12.0567
▁Barrett	-12.0567
▁buy	-12.0567
▁mandibulo	-12.0567
▁GTP	-12.0567
▁ileum	-12.0567
iastolic	-12.0567
▁Intermediate	-12.0567
▁Six	-12.0567
Hirsch	-12.0567
methylbutyryl	-12.0567
▁atrium	-12.0567
▁papillomavirus	-12.0567
▁peers	-12.0567
▁Histiocytosis	-12.0567
▁Safety	-12.0567
ountain	-12.0567
▁biotherapy	-12.0567
▁thousands	-12.0567
▁Pylori	-12.0567
▁mind	-12.0567
rituximab	-12.0567
▁Local	-12.0567
▁limitations	-12.0567
UGT	-12.0567
KBG	-12.0567
▁Index	-12.0567
▁Water	-12.0567
▁Succin	-12.0567
▁bedding	-12.0567
perforate	-12.0567
EGD	-12.0567
▁dosage	-12.0567
▁catecholamine	-12.0567
▁Glioma	-12.0567
▁metachromatic	-12.0567
▁Medium	-12.0567
▁fade	-12.0567
▁separation	-12.0567
▁Maternal	-12.0567
▁edges	-12.0568
▁crackers	-12.0568
▁uneven	-12.0568
▁slender	-12.0568
▁underweight	-12.0568
▁Mon	-12.0568
▁peroxisomes	-12.0569
beck	-12.0569
▁cbl	-12.0569
▁ball	-12.0569
nuous	-12.057
▁Action	-12.0571
▁Ray	-12.0571
▁web	-12.0572
▁relate	-12.0574
▁Eosinophilic	-12.0574
▁warmth	-12.0575
▁fertilized	-12.0579
iffer	-12.0579
▁2,500	-12.058
bin	-12.0583
▁Dysmetri	-12.0583
▁Whole	-12.0584
ABC	-12.0584
TRA	-12.0584
▁MID	-12.0585
KAT	-12.0586
▁eliminat	-12.0586
revel	-12.0586
▁Supplements	-12.0591
nephronophthisis	-12.0592
▁fontanel	-12.0593
▁XXX	-12.0593
▁NETs	-12.0594
▁compress	-12.0596
FNA	-12.0597
▁Vegetables	-12.06
▁Han	-12.0601
Hutte	-12.0607
dbor	-12.0608
▁Leg	-12.0609
▁crystallin	-12.0614
nick	-12.0615
▁aqueduct	-12.0616
Kau	-12.062
▁labor	-12.0625
algia	-12.0626
▁failed	-12.0634
▁rhythmic	-12.0634
▁breads	-12.0637
▁routinely	-12.0637
rap	-12.0637
flu	-12.0639
Cho	-12.064
duced	-12.0654
gregat	-12.0655
▁leaks	-12.0661
site	-12.0664
▁startle	-12.0666
▁focusing	-12.068
▁relaxed	-12.0689
iod	-12.0692
▁expressed	-12.0699
▁Facts	-12.0701
going	-12.0716
erian	-12.0717
56	-12.0721
▁Hispanics	-12.0723
cellular	-12.0733
nia	-12.0735
ug	-12.0739
▁Hemophagocyt	-12.075
▁sad	-12.0753
dded	-12.0759
▁SH	-12.0768
ford	-12.078
▁TH	-12.0781
▁clicking	-12.0785
▁odors	-12.0787
▁relapses	-12.0787
▁(3-	-12.0788
activate	-12.0794
▁partners	-12.0796
arms	-12.0809
physe	-12.0812
incin	-12.082
HGA	-12.0825
place	-12.0826
utonomic	-12.0829
▁sleepy	-12.0835
strophic	-12.0844
▁Chi	-12.0844
sides	-12.0856
▁Medi	-12.0858
amen	-12.0863
▁Scr	-12.0865
etti	-12.0867
▁Lat	-12.0868
encephalopathy	-12.087
gesting	-12.087
▁concentrations	-12.0884
break	-12.0884
AVM	-12.0885
night	-12.0885
ADHD	-12.0888
glycine	-12.0888
coordinated	-12.0888
fibrosis	-12.0888
DASH	-12.0888
Small	-12.0889
cirrhosis	-12.0889
direct	-12.0889
vaginal	-12.089
life	-12.0891
Low	-12.0891
Nie	-12.0891
Beh	-12.0895
▁vibration	-12.0895
image	-12.0896
▁hamartoma	-12.0896
▁insulate	-12.0896
▁skill	-12.0899
pituitary	-12.0901
itreoretinopathy	-12.0911
▁Lipo	-12.0913
ALD	-12.0917
ner	-12.0919
▁Ax	-12.0923
▁rec	-12.0933
asteri	-12.0938
▁Myo	-12.0943
hypophosphatemia	-12.0944
▁flush	-12.0954
eriventricular	-12.0954
▁RB	-12.096
echo	-12.0964
▁Pap	-12.0966
▁faint	-12.0969
Pheochromocytoma	-12.0974
ynecomastia	-12.0987
lamp	-12.0988
Periodont	-12.0994
ypotonia	-12.1
▁flash	-12.1
▁Wolf	-12.1001
▁strip	-12.1001
▁Transition	-12.1001
▁Viscer	-12.1001
▁Adolescent	-12.1001
▁Australia	-12.1001
▁Cryosurgery	-12.1001
▁Fungoides	-12.1001
▁IKBK	-12.1001
▁Replacement	-12.1001
▁Schinzel	-12.1001
▁Snyder	-12.1001
▁Toxocara	-12.1001
▁Wolman	-12.1001
▁acupuncture	-12.1001
▁challenging	-12.1001
▁eligible	-12.1001
▁expansion	-12.1001
▁leishmaniasis	-12.1001
▁nonseminoma	-12.1001
▁opinion	-12.1001
▁polymerase	-12.1001
▁pursuit	-12.1001
▁spheroids	-12.1001
▁swimming	-12.1001
▁tracheostomy	-12.1001
▁workload	-12.1001
▁Gastric	-12.1001
▁Smell	-12.1001
▁isochromosome	-12.1001
CHOPS	-12.1001
▁hookworm	-12.1001
▁nits	-12.1001
▁keratitis	-12.1001
▁ALX	-12.1002
▁nondisjunction	-12.1002
▁supervision	-12.1002
disciplin	-12.1002
▁Polymyositis	-12.1002
▁splint	-12.1002
▁Acne	-12.1002
▁trapped	-12.1002
▁glutamate	-12.1002
▁Overall	-12.1002
VSD	-12.1002
▁coalition	-12.1002
▁sucrose	-12.1002
▁Finland	-12.1002
▁biotinidase	-12.1002
uku	-12.1002
▁snoring	-12.1002
▁write	-12.1002
▁drowsiness	-12.1002
▁Blockage	-12.1002
▁dyskeratosis	-12.1002
▁citrate	-12.1002
▁Stay	-12.1002
▁Look	-12.1002
dino	-12.1002
▁private	-12.1002
▁prolidase	-12.1002
▁transformation	-12.1003
▁floss	-12.1003
being	-12.1004
Thrombotic	-12.1004
▁proline	-12.1004
▁elevation	-12.1004
▁SMAD	-12.1004
▁TGFB	-12.1004
▁massage	-12.1004
▁polyneuropathy	-12.1004
▁laminin	-12.1006
▁Veno	-12.1006
▁IFT	-12.1006
▁DRD	-12.1007
html	-12.1007
▁consultation	-12.1007
▁sew	-12.1008
▁Today	-12.1008
▁phlebotomy	-12.1009
bsen	-12.101
▁deteriorate	-12.1011
▁tablets	-12.1012
Needle	-12.1013
infarcts	-12.1013
subunits	-12.1013
▁FXTAS	-12.1014
ames	-12.1014
gular	-12.1014
▁pop	-12.1015
▁Dari	-12.1016
▁PLP	-12.1016
meric	-12.1018
▁turning	-12.102
▁pit	-12.1021
▁Dislocat	-12.1021
▁concentrated	-12.1021
▁Ander	-12.1023
▁blepharospasm	-12.1025
▁lodge	-12.1025
▁myositis	-12.1025
▁webbed	-12.1025
▁shin	-12.1025
▁peeling	-12.1025
openia	-12.1029
▁Prostat	-12.103
hirsutism	-12.1035
▁teenagers	-12.1037
▁bathing	-12.1038
▁140/90	-12.104
▁sooner	-12.104
▁formimino	-12.1041
hip	-12.1041
▁raccoons	-12.1041
campomelic	-12.1043
sepsis	-12.1051
TH	-12.1052
▁rising	-12.1055
vo	-12.1056
▁Pals	-12.1057
▁individualized	-12.1059
▁ingredients	-12.1062
▁Pha	-12.1067
▁points	-12.1067
occ	-12.107
fasciculation	-12.1072
▁eaten	-12.1073
▁NHPP	-12.1076
▁sulfatase	-12.1076
An	-12.1083
▁cyanosis	-12.1083
▁Naj	-12.109
oxic	-12.1091
ado	-12.1098
▁IgE	-12.1102
▁mu	-12.1107
▁ADHD	-12.1121
unci	-12.1126
▁polar	-12.1137
apillary	-12.1151
▁RPS	-12.1162
olase	-12.1163
nar	-12.1167
round	-12.117
▁rarer	-12.1182
rittle	-12.1191
eating	-12.1193
ubic	-12.1196
▁appearing	-12.1202
▁RAP	-12.121
CAR	-12.1213
ashi	-12.1214
▁Derm	-12.1222
ersonality	-12.1223
genis	-12.1237
PAP	-12.1237
lack	-12.1248
ruc	-12.1249
IE	-12.1257
▁Headaches	-12.127
zing	-12.1285
MSA	-12.1286
▁converting	-12.1294
▁Count	-12.1299
je	-12.1316
medic	-12.1339
▁sensor	-12.1342
myopia	-12.1343
angiotensin	-12.1343
Inherited	-12.1343
▁Persisten	-12.1343
microphthalmia	-12.1343
trachea	-12.1343
present	-12.1343
button	-12.1343
sensory	-12.1343
malignant	-12.1343
infertility	-12.1344
LDL	-12.1344
medications	-12.1344
▁lymphoblast	-12.1347
accumulation	-12.1347
▁globin	-12.1348
▁formula	-12.135
▁hazard	-12.135
/10	-12.135
▁Step	-12.135
▁host	-12.1351
isk	-12.1351
▁suture	-12.1352
▁Medication	-12.1353
▁nutrient	-12.1353
▁task	-12.1354
▁postur	-12.1356
glyco	-12.1363
arched	-12.1368
▁alteration	-12.1368
rie	-12.1376
mura	-12.1377
▁ven	-12.1382
olabi	-12.139
▁Facio	-12.1392
▁disappears	-12.1396
▁cutane	-12.1409
▁thicken	-12.1416
▁measur	-12.1417
kinesia	-12.1422
▁enlarges	-12.1427
▁sclera	-12.1434
▁modifie	-12.1435
creasingly	-12.1438
ssels	-12.1444
fs	-12.1454
▁succin	-12.1455
▁bodi	-12.1455
ransposition	-12.1455
angrene	-12.1456
▁fibrin	-12.1456
mmwr	-12.1456
histochemistry	-12.1456
▁Hutchinson	-12.1456
aught	-12.1456
blepharophimosis	-12.1456
condylar	-12.1456
extensibility	-12.1456
ferritinopathy	-12.1456
hexosaminidase	-12.1456
sulfur	-12.1456
tzen	-12.1456
upernumerary	-12.1456
▁Advantage	-12.1456
▁Angiography	-12.1456
▁Anorexia	-12.1456
▁Book	-12.1456
▁Genital	-12.1456
▁Hyperplasia	-12.1456
▁McKusick	-12.1456
▁OPCA	-12.1456
▁Petechiae	-12.1456
▁Porencephaly	-12.1456
▁SIX	-12.1456
▁Schnitzler	-12.1456
▁Sepsis	-12.1456
▁Shwachman	-12.1456
▁Spontaneous	-12.1456
▁Surveillance	-12.1456
▁Tobacco	-12.1456
▁appendage	-12.1456
▁biochemical	-12.1456
▁byproduct	-12.1456
▁coccyx	-12.1456
▁consuming	-12.1456
▁dentures	-12.1456
▁dressing	-12.1456
▁epinephrine	-12.1456
▁fluttering	-12.1456
▁fossa	-12.1456
▁hydratase	-12.1456
▁hypouricemia	-12.1456
▁initiate	-12.1456
▁inversion	-12.1456
▁myocardium	-12.1456
▁obliterans	-12.1456
▁phosphoribosyl	-12.1456
▁pollen	-12.1456
▁porencephaly	-12.1456
▁promising	-12.1456
▁protrude	-12.1456
▁recycling	-12.1456
▁sampling	-12.1456
▁strands	-12.1456
▁throbbing	-12.1456
▁thrombocytosis	-12.1456
▁urinalysis	-12.1456
▁velvety	-12.1456
▁yogurt	-12.1456
▁Obstructi	-12.1456
▁incisor	-12.1456
▁ribosom	-12.1456
▁spells	-12.1456
▁tailored	-12.1456
▁dorsi	-12.1456
chlor	-12.1456
▁Astrocytomas	-12.1456
▁throw	-12.1456
▁Nodul	-12.1456
▁POLR	-12.1456
▁Gastroparesis	-12.1456
▁TSEs	-12.1456
▁Tips	-12.1456
Scott	-12.1456
▁gastrinomas	-12.1456
▁ragged	-12.1456
▁government	-12.1456
▁myotubular	-12.1456
▁classification	-12.1456
▁transthyretin	-12.1456
▁music	-12.1456
▁GAA	-12.1456
▁hematocrit	-12.1456
▁sulfate	-12.1456
▁French	-12.1456
hypersensitivity	-12.1456
▁Alternative	-12.1457
▁marking	-12.1457
ethre	-12.1457
▁Fronto	-12.1457
▁Streptococcus	-12.1457
▁boil	-12.1457
HEX	-12.1457
▁bike	-12.1457
▁mRNA	-12.1457
▁modest	-12.1457
▁relation	-12.1457
▁Write	-12.1457
▁waking	-12.1458
▁epicanthus	-12.1458
▁stre	-12.1458
▁deposition	-12.1458
▁hypopharynx	-12.1458
▁avoidance	-12.1459
▁suicide	-12.146
▁sharpness	-12.1461
▁soreness	-12.1461
▁sold	-12.1462
print	-12.1462
▁SALL	-12.1462
▁TBM	-12.1462
ADI	-12.1463
▁stressful	-12.1463
▁epilepticus	-12.1464
▁etc	-12.1464
▁Endoscopy	-12.1465
▁Sweating	-12.1466
▁loosen	-12.1466
▁diminished	-12.1468
IK	-12.1468
hydranencephaly	-12.1468
▁pigmenti	-12.1469
▁epidemic	-12.147
▁EDA	-12.1471
supravalvular	-12.1472
▁dislocate	-12.1472
lop	-12.1475
▁ADNFLE	-12.1475
▁Mineral	-12.1475
▁webbing	-12.1475
▁reproduction	-12.1478
▁stimulants	-12.1478
▁preferred	-12.148
▁MRP	-12.148
▁PKU	-12.148
jee	-12.148
▁wider	-12.1483
▁Simpson	-12.1486
▁peroxidase	-12.1486
▁ACAD	-12.149
▁sinusitis	-12.1493
▁anticipation	-12.1494
gyri	-12.1494
-1-	-12.1495
▁hypotrichosis	-12.1496
oderm	-12.1498
▁stresses	-12.1501
isodic	-12.1501
▁Main	-12.1502
▁afibrinogenemia	-12.1502
▁tinnitus	-12.1502
ILD	-12.1503
Wells	-12.1503
▁pushed	-12.1506
▁Dont	-12.1507
▁calvaria	-12.1508
phth	-12.1512
▁Gh	-12.1512
▁scapula	-12.1517
▁calorie	-12.1518
▁homeostasis	-12.1521
▁ointments	-12.1523
▁HRT	-12.1526
▁reversed	-12.1528
▁sedatives	-12.1533
▁ICD	-12.1533
▁PRP	-12.1538
HI	-12.154
TSP	-12.1545
▁advances	-12.1553
▁Sheldon	-12.1561
▁Aneurysms	-12.1592
▁wine	-12.1592
▁Color	-12.1596
▁vitreoretin	-12.1602
▁noises	-12.1602
onjunctivitis	-12.1604
▁lamin	-12.161
▁nothing	-12.161
▁lymphadenopathy	-12.1611
osal	-12.1613
▁evaluat	-12.1614
liosis	-12.1617
▁Past	-12.1636
clinodactyly	-12.1637
tia	-12.1641
▁Pron	-12.1649
unken	-12.1658
▁Bulbo	-12.1668
▁dysarthria	-12.1676
▁Best	-12.1677
▁cyto	-12.1682
▁Stro	-12.1683
▁ahead	-12.1686
ify	-12.1686
APS	-12.1689
▁Personal	-12.1692
-17	-12.1696
▁cardiofaci	-12.1713
▁osteo	-12.1733
▁visiting	-12.1738
sure	-12.174
7-	-12.1741
▁cardiologists	-12.1743
▁metall	-12.1747
▁son	-12.1755
▁persists	-12.1758
ison	-12.1762
naplastic	-12.1762
lau	-12.1765
▁Peri	-12.1768
▁reasoning	-12.1777
Gil	-12.1786
▁blister	-12.1797
slow	-12.18
ALL	-12.1815
▁soy	-12.1817
IBD	-12.1818
psycho	-12.1818
FDA	-12.1819
therapy	-12.1819
GERD	-12.1819
hematuria	-12.1819
expression	-12.1819
hydrocephalus	-12.1819
trunk	-12.1819
cardiomyopathy	-12.182
percent	-12.182
disease	-12.182
▁Br	-12.182
through	-12.182
under	-12.1821
iodine	-12.1821
▁DM	-12.1822
fluid	-12.1822
HPV	-12.1823
irregular	-12.1826
▁Vein	-12.1826
▁precursor	-12.1826
▁defense	-12.1828
ctal	-12.1828
▁organism	-12.183
HIV	-12.1832
UV	-12.1835
grain	-12.1835
pain	-12.1836
▁SMA	-12.1838
lithiasis	-12.1843
ification	-12.1849
tein	-12.1857
▁Dy	-12.1868
hypoplasia	-12.1869
butyryl	-12.1878
abdominal	-12.188
▁Hemangioma	-12.1881
75	-12.1882
▁offered	-12.1884
▁inhale	-12.1906
changes	-12.191
▁concentrate	-12.1911
▁crust	-12.1917
▁prolong	-12.1918
troph	-12.1921
esomelic	-12.1922
▁hypohidro	-12.1923
ews	-12.1924
rave	-12.1924
thern	-12.1924
▁Walk	-12.1927
▁Desmo	-12.1928
DI	-12.1928
ermanent	-12.193
roctitis	-12.193
illes	-12.193
▁hoarse	-12.1931
urfactant	-12.1931
destruct	-12.1931
ysautonomia	-12.1931
▁demyelinat	-12.1932
▁cholester	-12.1932
▁Sinus	-12.1932
oolly	-12.1932
acrococcygeal	-12.1932
sylvi	-12.1932
▁spongi	-12.1932
Anophthalmia	-12.1932
carotene	-12.1932
ctropion	-12.1932
eterochromia	-12.1932
nkinesi	-12.1932
triglyceridemia	-12.1932
uebec	-12.1932
▁Acinetobacter	-12.1932
▁Angiostrongyl	-12.1932
▁Electric	-12.1932
▁Excision	-12.1932
▁Hoarse	-12.1932
▁Incisional	-12.1932
▁Intelligence	-12.1932
▁Keratoconus	-12.1932
▁Light	-12.1932
▁Manitoba	-12.1932
▁Monitor	-12.1932
▁Morph	-12.1932
▁Swollen	-12.1932
▁Winchester	-12.1932
▁accompany	-12.1932
▁amniocentesis	-12.1932
▁categories	-12.1932
▁cherubism	-12.1932
▁ethmoid	-12.1932
▁herpetiformis	-12.1932
▁hydration	-12.1932
▁nephrologist	-12.1932
▁pesticides	-12.1932
▁plasmapheresis	-12.1932
▁pneumococc	-12.1932
▁syringomyelia	-12.1932
▁tuna	-12.1932
▁unneeded	-12.1932
▁BPES	-12.1932
▁Herpes	-12.1932
▁Rheumatic	-12.1932
▁adenine	-12.1932
▁isotretinoin	-12.1932
▁mcg	-12.1932
▁pleurisy	-12.1932
▁precede	-12.1932
▁preparing	-12.1932
▁sharing	-12.1932
▁ALPS	-12.1932
▁Ankylosi	-12.1932
▁GDF	-12.1932
Rhabdo	-12.1932
▁inhaling	-12.1932
▁Green	-12.1932
▁cylindromatosis	-12.1932
▁thrombasthenia	-12.1932
▁window	-12.1932
▁CASK	-12.1932
▁lumb	-12.1932
▁Gonad	-12.1932
▁phototherapy	-12.1932
▁hyperekplexia	-12.1932
▁stapes	-12.1932
IVIG	-12.1932
▁Myoclonic	-12.1932
▁recombina	-12.1932
▁slim	-12.1932
▁Frei	-12.1932
depth	-12.1932
▁complain	-12.1932
▁streak	-12.1932
leeve	-12.1933
▁galactosemia	-12.1933
▁pharyngitis	-12.1933
▁seasonings	-12.1933
DPL	-12.1933
olumb	-12.1933
▁beams	-12.1933
▁gut	-12.1933
SCOT	-12.1933
▁unconscious	-12.1933
▁Proton	-12.1933
▁lability	-12.1933
▁Kni	-12.1933
▁independently	-12.1933
clavi	-12.1933
▁prostatectomy	-12.1934
cdc	-12.1934
▁alfa	-12.1934
▁flashes	-12.1934
▁Roman	-12.1934
▁stillborn	-12.1934
▁alcoholism	-12.1934
▁Gilles	-12.1935
▁gastrin	-12.1935
▁suit	-12.1935
▁chair	-12.1936
▁TLC	-12.1936
▁attachment	-12.1936
▁REN	-12.1937
▁Caffe	-12.1937
▁Hypogonadotrop	-12.1937
▁Sick	-12.1937
▁dermatosis	-12.1937
▁overactivity	-12.1939
▁interrupted	-12.1939
▁OPA	-12.194
▁CDH	-12.194
▁electronic	-12.1941
▁inflated	-12.1941
▁GPA	-12.1942
adrenal	-12.1945
▁Sore	-12.1946
▁indication	-12.1947
▁DHD	-12.1949
▁arachnoid	-12.1949
▁arteriopathy	-12.1952
▁breastfeeding	-12.1952
▁MELAS	-12.1952
▁stained	-12.1953
▁idea	-12.1954
▁antithrombin	-12.1954
▁ulceration	-12.1955
umb	-12.1956
▁bout	-12.1957
▁ALDH	-12.1957
ersl	-12.1957
▁CCHD	-12.1959
Re	-12.196
▁told	-12.1961
▁Fasting	-12.1961
▁mandible	-12.1963
hardening	-12.1964
▁continuously	-12.1965
▁Triglycerides	-12.1966
eviation	-12.1967
▁generated	-12.1967
▁investigate	-12.1968
▁Fair	-12.1969
▁Grade	-12.1969
▁megalencephaly	-12.1969
▁SMC	-12.1972
▁angle	-12.1972
▁Corona	-12.1977
hic	-12.1981
rteriosclerosis	-12.1982
ntiepileptic	-12.1986
RAS	-12.1986
▁Gray	-12.1989
▁Pier	-12.199
▁shared	-12.1991
gonadotrop	-12.1997
CCD	-12.2
icit	-12.2004
GG	-12.2008
▁Trophoblast	-12.2008
▁nephrons	-12.2013
▁Du	-12.2023
▁GISTs	-12.2023
▁riding	-12.2023
▁PTH	-12.2026
▁Forms	-12.2026
genital	-12.2028
▁demonstrate	-12.2028
▁Thalassemias	-12.2033
ngiomatosis	-12.2037
box	-12.2041
ontine	-12.2042
▁SMARC	-12.2048
papillary	-12.2054
▁noticed	-12.2057
LIN	-12.2059
PKD	-12.2066
▁pears	-12.2067
▁deeply	-12.2068
Robins	-12.2071
liver	-12.2072
▁positioned	-12.2073
▁touching	-12.2086
DHA	-12.2099
▁Nat	-12.2105
tumor	-12.2109
▁chi	-12.2112
PB	-12.2118
▁Chan	-12.2119
RO	-12.212
orectal	-12.212
ank	-12.2124
▁Curr	-12.2134
▁separated	-12.2137
ev	-12.2138
alignment	-12.2141
▁Omen	-12.2146
nci	-12.2154
ensing	-12.2161
alf	-12.2162
fusion	-12.2164
▁Epidermoly	-12.2171
▁paragangliomas	-12.2175
▁Legi	-12.2177
xillary	-12.2178
▁inactivity	-12.2185
▁runn	-12.2191
▁Under	-12.2202
reas	-12.2204
ctation	-12.2206
pp	-12.2207
scher	-12.2213
▁misalign	-12.2218
oligosaccharides	-12.2228
▁geneticist	-12.2229
aque	-12.2233
IRD	-12.2235
▁Macro	-12.2235
ambiguous	-12.2236
Sch	-12.2236
▁muco	-12.2245
▁Dr	-12.2247
▁induce	-12.2249
▁shower	-12.2253
ccording	-12.2259
erobic	-12.2259
inch	-12.2268
Dor	-12.2272
▁metastasize	-12.2282
▁Proteins	-12.2298
▁evaluations	-12.2298
▁addressed	-12.2301
bloc	-12.2301
lade	-12.2304
▁advance	-12.2306
emivertebrae	-12.2308
Sheldon	-12.2317
IgE	-12.2317
umbilic	-12.2319
bulb	-12.2319
phospho	-12.2319
polyposis	-12.2319
needle	-12.232
drug	-12.232
baby	-12.232
Stage	-12.232
affect	-12.232
exist	-12.232
undergo	-12.232
occurring	-12.2321
ostomy	-12.2322
▁Transfusion	-12.2326
▁twin	-12.2327
▁race	-12.2328
▁XLP	-12.2329
▁Arachnoid	-12.2331
▁State	-12.2334
▁sep	-12.2335
poor	-12.2345
ORC	-12.2347
▁Thalassemia	-12.2348
▁rais	-12.2348
ung	-12.2349
nuch	-12.2354
lty	-12.2355
▁Oliv	-12.2363
▁ARB	-12.2373
▁EA	-12.2378
nym	-12.2384
BL	-12.2385
▁locat	-12.2393
verb	-12.2396
▁suck	-12.2399
▁wave	-12.2402
▁differs	-12.2422
▁excrete	-12.2424
due	-12.2425
▁electron	-12.2427
▁Compute	-12.2429
▁Measur	-12.243
yperglycemia	-12.243
extrocardia	-12.2431
▁Arrhythm	-12.2431
▁Glucagon	-12.2432
▁Histori	-12.2432
motility	-12.2432
hyperammonemia	-12.2432
▁incontinent	-12.2432
HANAC	-12.2432
glophonic	-12.2432
idinotransferase	-12.2432
synuclein	-12.2432
▁Acanthamoeba	-12.2432
▁Albinism	-12.2432
▁Aspirin	-12.2432
▁Consortium	-12.2432
▁Erythema	-12.2432
▁Fracture	-12.2432
▁GFR	-12.2432
▁Hemorrhoid	-12.2432
▁IPEX	-12.2432
▁LMNA	-12.2432
▁Marshall	-12.2432
▁Meige	-12.2432
▁Naegeli	-12.2432
▁Network	-12.2432
▁PTPN	-12.2432
▁Schizencephaly	-12.2432
▁Susceptibility	-12.2432
▁Thymoma	-12.2432
▁Yellow	-12.2432
▁acetaminophen	-12.2432
▁ambulat	-12.2432
▁carbamazepine	-12.2432
▁carrots	-12.2432
▁cataplexy	-12.2432
▁cathepsin	-12.2432
▁communities	-12.2432
▁dexamethasone	-12.2432
▁dilatation	-12.2432
▁filariasis	-12.2432
▁filtration	-12.2432
▁fingertip	-12.2432
▁fragility	-12.2432
▁fumarase	-12.2432
▁humid	-12.2432
▁karyotype	-12.2432
▁offspring	-12.2432
▁osteodystrophy	-12.2432
▁pantothen	-12.2432
▁pollutants	-12.2432
▁polychondritis	-12.2432
▁powder	-12.2432
▁promise	-12.2432
▁schizencephaly	-12.2432
▁seafood	-12.2432
▁slugs	-12.2432
▁sneezing	-12.2432
▁surviving	-12.2432
▁visceral	-12.2432
▁vulgaris	-12.2432
PDGF	-12.2432
▁Nether	-12.2432
▁SRY	-12.2432
▁immunization	-12.2432
▁proceed	-12.2432
▁financ	-12.2432
▁pork	-12.2432
▁federal	-12.2432
▁personnel	-12.2432
▁Alaska	-12.2432
▁BCS	-12.2432
▁Brown	-12.2432
▁Refractory	-12.2432
▁Subacute	-12.2432
▁neurosyphilis	-12.2432
▁cemento	-12.2432
▁Teen	-12.2432
▁phone	-12.2432
▁impossible	-12.2432
▁zone	-12.2432
▁cookies	-12.2432
▁nephrectomy	-12.2432
▁ESS	-12.2432
▁PSC	-12.2432
▁Tiny	-12.2432
▁ACTA	-12.2432
▁southern	-12.2432
▁powerful	-12.2432
▁microlithiasis	-12.2432
▁pounding	-12.2432
▁flies	-12.2433
▁radiosurgery	-12.2433
▁chelation	-12.2433
▁tree	-12.2433
▁rejection	-12.2433
VPS	-12.2433
▁stereotactic	-12.2433
▁succinate	-12.2433
▁chromatin	-12.2433
▁irregularities	-12.2433
▁Palm	-12.2433
▁xanthomas	-12.2434
▁elasticum	-12.2434
▁Sugar	-12.2434
▁bud	-12.2434
▁psychosis	-12.2434
▁theories	-12.2435
▁fixation	-12.2435
▁Impairment	-12.2435
▁lightheadedness	-12.2435
▁GARD	-12.2435
▁spurt	-12.2435
▁MIDD	-12.2436
▁paralyzed	-12.2436
▁Arteries	-12.2437
▁Mesomelic	-12.2438
rippling	-12.2439
▁reliable	-12.244
▁output	-12.2441
▁toxicity	-12.2442
▁Swed	-12.2445
▁CRPS	-12.2447
▁defibrillator	-12.2447
▁nicotine	-12.2449
▁thirsty	-12.2449
regeneration	-12.245
▁endoscop	-12.245
etachromatic	-12.2456
▁Sha	-12.2456
▁FSGS	-12.2459
▁tension	-12.2459
neuropathy	-12.246
injuri	-12.2463
▁manifestations	-12.2468
▁washed	-12.2469
▁250	-12.2471
▁closer	-12.2471
STT	-12.2472
▁consumed	-12.2474
▁crowded	-12.2477
▁scratching	-12.2478
serologic	-12.2479
▁HSN	-12.2483
▁originate	-12.2483
▁prunes	-12.2489
▁ADH	-12.249
gene	-12.2494
▁macro	-12.2495
▁islet	-12.2497
▁freely	-12.2497
▁Pop	-12.2498
idase	-12.2499
▁titers	-12.25
▁aggravate	-12.2501
2-3	-12.2503
▁nine	-12.2507
KLE	-12.2511
▁Steroids	-12.2511
orf	-12.2514
▁Than	-12.2517
▁vari	-12.2519
▁ligands	-12.2522
test	-12.2523
TF	-12.2524
▁straining	-12.2525
▁zoster	-12.2531
leo	-12.2531
▁chat	-12.2534
▁IIC	-12.2535
▁induction	-12.2536
▁pu	-12.2541
▁End	-12.2541
▁sacr	-12.2544
▁ostomy	-12.2548
▁POR	-12.2548
▁sensors	-12.255
▁hamartomas	-12.2555
▁Dono	-12.2563
/9	-12.2568
neuro	-12.257
erosa	-12.2582
▁row	-12.2582
▁filling	-12.2589
prov	-12.2598
▁miscarriages	-12.2599
▁EXT	-12.2621
LN	-12.2623
atty	-12.2624
▁Fei	-12.2639
▁strabismus	-12.264
tous	-12.2645
arin	-12.2646
▁lob	-12.2653
▁Barre	-12.2656
▁cultures	-12.266
▁preparations	-12.266
uckle	-12.2666
hart	-12.27
former	-12.2701
▁losses	-12.2705
ick	-12.2709
▁AAA	-12.2737
▁segments	-12.2738
▁EB	-12.2755
ichia	-12.2772
plasm	-12.2779
4,000	-12.2785
▁par	-12.2788
TE	-12.2788
HAM	-12.2791
▁der	-12.2793
▁SD	-12.2793
LM	-12.2795
▁sta	-12.2807
▁carbonate	-12.281
▁Addisons	-12.2812
lways	-12.2821
migration	-12.2823
▁Photo	-12.2831
Chap	-12.2832
▁Har	-12.284
metastasize	-12.2843
Facts	-12.2844
medullar	-12.2845
diabetes	-12.2845
inguinal	-12.2845
tremor	-12.2846
average	-12.2846
water	-12.2846
limited	-12.2846
condition	-12.2846
nail	-12.2846
vas	-12.2848
hyperkalemia	-12.2849
How	-12.2852
▁erosion	-12.2854
▁toenail	-12.2856
▁fontanelle	-12.2856
▁Intens	-12.2856
▁mold	-12.2857
npenn	-12.2858
▁Meta	-12.2859
coll	-12.2861
acid	-12.2863
intra	-12.2866
▁herb	-12.2867
issen	-12.2869
▁PSG	-12.2876
▁actual	-12.2889
▁FTD	-12.2894
▁Dystroph	-12.2895
bron	-12.2901
ebrile	-12.2912
graphic	-12.2918
▁ounce	-12.292
▁Sh	-12.2922
▁Latin	-12.2927
▁checkup	-12.2928
▁recurs	-12.2931
harm	-12.2932
▁Hormon	-12.2935
▁larva	-12.2936
▁inflame	-12.2938
oscope	-12.2938
▁tire	-12.2938
▁responsive	-12.2942
▁contaminate	-12.2942
▁Affect	-12.2944
hat	-12.2947
▁equal	-12.2948
▁efficient	-12.2948
olydactyly	-12.2949
▁gyrat	-12.295
egional	-12.295
ALS	-12.2952
▁Old	-12.2955
▁gro	-12.2955
ypercalcemia	-12.2957
▁glass	-12.2957
▁Virus	-12.2957
▁prote	-12.2957
onycho	-12.2958
In	-12.2958
▁jejun	-12.2958
pithelioid	-12.2958
▁Embryon	-12.2958
▁Lambert	-12.2958
▁maxim	-12.2959
DOORS	-12.2959
ammertoe	-12.2959
caudal	-12.2959
distichiasis	-12.2959
erostomia	-12.2959
kappa	-12.2959
ntenatal	-12.2959
ogranulomatosis	-12.2959
rhizomeli	-12.2959
▁Aarskog	-12.2959
▁Ankle	-12.2959
▁Asymmetric	-12.2959
▁Citrullinemia	-12.2959
▁Compare	-12.2959
▁Correct	-12.2959
▁Cytogenetic	-12.2959
▁DPY	-12.2959
▁Dermatitis	-12.2959
▁Drooling	-12.2959
▁Marden	-12.2959
▁Navajo	-12.2959
▁Neoplasia	-12.2959
▁Prothrombin	-12.2959
▁Reflux	-12.2959
▁Stomach	-12.2959
▁Syringomyelia	-12.2959
▁Thrombocythemia	-12.2959
▁Torticollis	-12.2959
▁Tuberculosis	-12.2959
▁Wildervan	-12.2959
▁cysticercosis	-12.2959
▁expensive	-12.2959
▁gentle	-12.2959
▁gloves	-12.2959
▁hungry	-12.2959
▁intellect	-12.2959
▁kinesi	-12.2959
▁lymphadenectomy	-12.2959
▁necroti	-12.2959
▁packed	-12.2959
▁participants	-12.2959
▁porokeratosis	-12.2959
▁progestin	-12.2959
▁reddened	-12.2959
▁salmon	-12.2959
▁sunglasses	-12.2959
▁superior	-12.2959
▁suspicion	-12.2959
▁xanthine	-12.2959
scotoma	-12.2959
▁TSEN	-12.2959
▁disabled	-12.2959
▁Cheil	-12.2959
▁Implant	-12.2959
▁Nucle	-12.2959
▁burp	-12.2959
▁garden	-12.2959
▁opioid	-12.2959
▁lima	-12.2959
▁Salmonella	-12.2959
▁suppurativa	-12.2959
ypothermia	-12.2959
▁storing	-12.2959
▁wish	-12.2959
▁PLS	-12.2959
▁spiral	-12.2959
spaol	-12.2959
▁Extragonadal	-12.2959
olangiocarcinoma	-12.2959
▁Antiviral	-12.2959
▁vacuoles	-12.2959
▁Itching	-12.2959
▁Boy	-12.2959
▁Stria	-12.2959
DCMA	-12.2959
▁glutathione	-12.2959
▁ADEM	-12.2959
▁sebace	-12.2959
▁deoxy	-12.2959
▁PAH	-12.2959
▁Tear	-12.2959
▁cystoscope	-12.2959
▁ground	-12.2959
▁Duplication	-12.2959
▁tangle	-12.2959
▁reconstruction	-12.2959
▁pockets	-12.296
▁Mood	-12.296
▁gross	-12.296
▁disorganized	-12.296
▁elimination	-12.296
▁neuromyotonia	-12.296
▁calcinosis	-12.296
▁Overfold	-12.296
▁torn	-12.296
▁GRN	-12.2961
▁bold	-12.2962
▁integrin	-12.2962
▁Megalencephaly	-12.2962
▁coping	-12.2962
▁soda	-12.2962
▁mosquitoes	-12.2962
▁REC	-12.2962
▁circulat	-12.2963
held	-12.2963
▁map	-12.2963
▁halt	-12.2963
▁SPS	-12.2964
thetosis	-12.2965
▁Painless	-12.2966
▁Acromesomeli	-12.2966
23.1	-12.2966
▁wetting	-12.2966
▁Bowen	-12.2967
▁occasional	-12.2968
▁TBI	-12.2968
▁Federa	-12.2968
▁logo	-12.2969
▁annulare	-12.2971
isoform	-12.2973
▁Multic	-12.2973
cessive	-12.2973
aily	-12.2976
▁conductive	-12.2977
▁dull	-12.2978
dyspnea	-12.2979
▁sprain	-12.2981
tum	-12.2981
▁planitis	-12.2982
averno	-12.2983
▁alive	-12.2985
▁putting	-12.2985
▁erythema	-12.2987
CAM	-12.2988
▁microfibrils	-12.299
▁Fast	-12.2994
erger	-12.2996
isobutyr	-12.2997
▁achieved	-12.2999
▁HUS	-12.2999
▁KFS	-12.3
▁exception	-12.3002
▁granules	-12.3003
▁remembering	-12.3003
▁expanded	-12.3004
tetrasomy	-12.3007
▁skipp	-12.3008
▁relaxants	-12.3009
7,000	-12.301
▁PCOS	-12.3012
▁Ky	-12.3019
▁demands	-12.3019
▁narrower	-12.3025
▁EBV	-12.3025
▁extended	-12.3027
phen	-12.3031
▁Defect	-12.3039
▁VK	-12.3044
▁emotionally	-12.3045
▁hundreds	-12.3048
Net	-12.305
▁nurses	-12.3057
protected	-12.3064
▁Ill	-12.3071
TPMT	-12.3071
▁hemato	-12.3073
▁divides	-12.3076
those	-12.3079
▁Steps	-12.3083
▁ADA	-12.3084
OI	-12.3088
▁Lateral	-12.3097
tol	-12.3106
pite	-12.3109
hil	-12.3116
meni	-12.3117
▁van	-12.3123
▁myelinat	-12.3123
▁erupt	-12.3129
nephr	-12.313
▁alleles	-12.3141
▁Shri	-12.3143
SIDS	-12.3143
▁HOX	-12.3148
ward	-12.3154
ersistence	-12.3157
edema	-12.3158
edge	-12.3167
iginally	-12.3178
erum	-12.3178
assisted	-12.3182
▁reached	-12.3195
▁60%	-12.3201
▁Fu	-12.3206
▁Osteoly	-12.3211
▁bulk	-12.3214
travenous	-12.3221
▁Intestine	-12.3224
sleep	-12.3227
▁CO	-12.3241
▁labia	-12.3269
otropi	-12.3273
▁gliomas	-12.3275
72	-12.3277
cardio	-12.3295
change	-12.3296
▁stu	-12.3297
▁ANK	-12.3298
▁fibros	-12.3299
▁eyeballs	-12.3318
▁rearrangements	-12.3324
ria	-12.3329
▁wheelchairs	-12.333
▁bother	-12.334
spiration	-12.3341
▁disrupted	-12.3344
KS	-12.3356
consistently	-12.3356
ura	-12.3375
▁Scan	-12.3381
▁paran	-12.3382
▁statin	-12.3382
▁AVM	-12.3384
Per	-12.3385
onnective	-12.3387
cam	-12.339
▁net	-12.3392
carpal	-12.3394
▁140	-12.3397
after	-12.3399
feeding	-12.3399
Stevens	-12.34
melanoma	-12.34
creatinine	-12.3401
bottom	-12.3401
parkinsonism	-12.3401
spread	-12.3401
lymphatic	-12.3401
cholesterol	-12.3401
removal	-12.3402
primary	-12.3402
What	-12.3402
four	-12.3403
TTP	-12.3404
▁anticonvulsant	-12.3409
▁teratoma	-12.3409
▁Cons	-12.3409
▁ligament	-12.341
▁nut	-12.3411
▁GIST	-12.3411
involuntary	-12.3412
ASD	-12.3418
▁Act	-12.3428
▁interfer	-12.3431
jer	-12.3432
▁LDH	-12.3436
medical	-12.3438
yncope	-12.3458
nce	-12.346
nasteri	-12.3462
rritable	-12.3463
mobile	-12.3468
▁sole	-12.3468
KO	-12.3476
RN	-12.3479
lbi	-12.3481
▁reticul	-12.349
▁delete	-12.3493
ough	-12.35
choa	-12.35
▁600	-12.3506
tonic	-12.3511
elective	-12.3513
▁deaf	-12.3513
▁Cortiso	-12.3514
iaphragmatic	-12.3514
DISH	-12.3514
Larsson	-12.3514
PubMed	-12.3514
ancytopenia	-12.3514
ardiomegaly	-12.3514
dermatoglyphia	-12.3514
droxychloroquine	-12.3514
hemoembolization	-12.3514
pseudoglioma	-12.3514
ureidopropionase	-12.3514
▁BOOP	-12.3514
▁Blepharospasm	-12.3514
▁Choroideremia	-12.3514
▁Dysostosis	-12.3514
▁Empty	-12.3514
▁Gamma	-12.3514
▁Moderate	-12.3514
▁Neuropathies	-12.3514
▁Parsonage	-12.3514
▁Street	-12.3514
▁Tinnitus	-12.3514
▁Vietnam	-12.3514
▁acatalasemia	-12.3514
▁afraid	-12.3514
▁bottle	-12.3514
▁cascade	-12.3514
▁cushion	-12.3514
▁decompression	-12.3514
▁defend	-12.3514
▁diversion	-12.3514
▁drooling	-12.3514
▁endometriosis	-12.3514
▁gammopathy	-12.3514
▁histidine	-12.3514
▁irreversible	-12.3514
▁kids	-12.3514
▁laparoscope	-12.3514
▁laparoscopic	-12.3514
▁lentils	-12.3514
▁medulloblastoma	-12.3514
▁mesothelioma	-12.3514
▁phenytoin	-12.3514
▁pilomatricoma	-12.3514
▁pineoblastoma	-12.3514
▁protrusion	-12.3514
▁pyelonephritis	-12.3514
▁safflower	-12.3514
▁schistosomiasis	-12.3514
▁sixties	-12.3514
▁slippery	-12.3514
▁tamoxifen	-12.3514
▁turcica	-12.3514
▁unexpected	-12.3514
▁Fowler	-12.3514
▁PXE	-12.3514
▁Reproducti	-12.3514
▁dermatologist	-12.3514
▁histiocytes	-12.3514
▁pharmacist	-12.3514
▁tetracycline	-12.3514
▁varices	-12.3514
midine	-12.3514
▁CCHS	-12.3514
▁Dermatomyositis	-12.3514
▁EVC	-12.3514
▁ignore	-12.3514
cromicri	-12.3514
▁choriocarcinoma	-12.3514
▁mesh	-12.3514
▁yeast	-12.3514
▁Adipos	-12.3514
▁Stillbirth	-12.3514
▁dystrophin	-12.3514
▁honeycomb	-12.3514
▁angiomas	-12.3514
▁subacute	-12.3514
▁subluxation	-12.3514
bronchomalacia	-12.3514
▁Antibody	-12.3514
▁Bloom	-12.3514
▁Natural	-12.3514
▁blueprint	-12.3514
▁Adenoma	-12.3514
▁subsides	-12.3514
▁toxoplasmosis	-12.3514
▁tyrosinemia	-12.3514
▁distention	-12.3514
▁1,200	-12.3514
▁AGS	-12.3515
▁microtubules	-12.3515
▁histiocytoma	-12.3515
▁Neuralgi	-12.3515
▁Paraganglioma	-12.3515
▁SYN	-12.3515
▁mumps	-12.3515
▁panniculitis	-12.3515
rune	-12.3515
▁caf	-12.3515
▁canola	-12.3515
▁clima	-12.3515
MCTD	-12.3515
▁quid	-12.3515
▁Brach	-12.3515
▁Active	-12.3515
▁freckles	-12.3515
▁dextrocardia	-12.3515
▁horizontal	-12.3515
▁informed	-12.3515
▁epi	-12.3516
▁iridis	-12.3516
▁myelopathy	-12.3516
▁fibrillin	-12.3516
CVS	-12.3516
▁letter	-12.3516
▁marks	-12.3516
IgD	-12.3516
▁ampli	-12.3516
▁GSDV	-12.3517
▁permission	-12.3517
bacher	-12.3517
677	-12.3517
▁Myeloma	-12.3517
▁enable	-12.3518
▁KI	-12.3518
▁moder	-12.3518
rhabdomyolysis	-12.3518
binsk	-12.3518
TCH	-12.3519
omandibular	-12.3519
carring	-12.352
▁ILS	-12.352
▁publication	-12.3521
▁upright	-12.3522
▁paleness	-12.3522
meningeal	-12.3522
▁overwhelming	-12.3522
▁dermis	-12.3523
hyaline	-12.3524
▁closing	-12.3524
▁Femoral	-12.3525
sorb	-12.3526
▁Cleido	-12.3526
▁discovery	-12.3528
▁CCM	-12.3531
partum	-12.3532
▁crusted	-12.3532
▁candy	-12.3532
▁2000	-12.3532
printed	-12.3533
▁dots	-12.3535
atory	-12.3535
fovea	-12.3535
▁COG	-12.3537
rolling	-12.3537
▁Botox	-12.3537
▁hyperuricemia	-12.3537
acting	-12.3538
▁thoroughly	-12.3538
▁XLA	-12.3539
▁farm	-12.354
▁modified	-12.3541
▁spongy	-12.3544
▁compromised	-12.3548
▁latex	-12.3548
proof	-12.3551
▁junctional	-12.3562
▁CABG	-12.3564
▁symmetrical	-12.3564
▁myoglobinuria	-12.3565
Latinos	-12.3565
▁diuretic	-12.3566
nosine	-12.3569
▁antioxidants	-12.3572
saving	-12.3574
ABP	-12.3576
▁Clot	-12.3576
GO	-12.3578
▁dut	-12.3578
kar	-12.3582
▁pot	-12.3583
▁Page	-12.3586
ncephalomyopathy	-12.3588
▁typ	-12.3589
TIM	-12.3601
lov	-12.3605
▁ruptures	-12.3607
▁STD	-12.3611
▁purines	-12.3615
▁drying	-12.3618
▁precursors	-12.3639
▁rely	-12.3642
▁arginase	-12.3642
▁RH	-12.3643
▁Microcephal	-12.3647
tase	-12.365
▁Form	-12.3656
ATPase	-12.3661
▁snacks	-12.3664
▁fly	-12.3665
Barre	-12.3666
LR	-12.3674
▁transform	-12.3675
▁Ten	-12.3676
NG	-12.3677
large	-12.3678
ene	-12.3679
▁hypospadias	-12.3681
▁excessively	-12.369
▁pressing	-12.3692
▁backgrounds	-12.3695
▁preventable	-12.3696
▁Granulomato	-12.3697
▁refractory	-12.3699
▁arthropathy	-12.3699
▁Higher	-12.3704
weym	-12.3711
mini	-12.3712
KAR	-12.3717
▁TIAs	-12.372
▁repeatedly	-12.3722
▁express	-12.3727
4.9	-12.3731
▁feeds	-12.3739
▁Los	-12.3741
▁myelitis	-12.3745
▁Plans	-12.3751
▁Cz	-12.3757
operat	-12.3763
CAD	-12.3769
UR	-12.3778
cephaly	-12.3793
▁relationships	-12.3801
▁Sen	-12.3807
nib	-12.3814
tropic	-12.3821
finger	-12.3823
arino	-12.3828
erior	-12.3835
PLA	-12.3836
nate	-12.3843
▁imbalances	-12.3844
▁Ei	-12.3847
▁Corn	-12.3849
pati	-12.3898
▁imp	-12.3905
own	-12.3916
MRA	-12.3921
aryl	-12.393
▁exchanges	-12.3946
▁joins	-12.3965
▁soak	-12.3978
▁disruptions	-12.398
retrovir	-12.3981
mean	-12.3982
▁rat	-12.3982
metabolize	-12.3986
VE	-12.3986
zoster	-12.3987
digested	-12.3988
kyphoscoliosis	-12.3989
chorea	-12.3989
relief	-12.3989
synthetase	-12.3989
adult	-12.399
pancreas	-12.399
familial	-12.399
Naj	-12.399
quality	-12.399
ERT	-12.3991
fix	-12.3992
TIA	-12.3992
rist	-12.3995
▁purine	-12.3997
▁ligand	-12.3997
meat	-12.3997
chat	-12.3999
▁vegetable	-12.3999
hereditary	-12.4012
▁Des	-12.4016
interst	-12.4023
scapulae	-12.4024
coronary	-12.4026
▁pil	-12.4037
nh	-12.4038
wer	-12.4042
lonid	-12.4042
▁ensur	-12.4045
▁Op	-12.4049
▁Electro	-12.4052
ymptomatic	-12.4061
▁teen	-12.4061
▁normalize	-12.4064
▁lift	-12.4071
▁peel	-12.4071
▁solutions	-12.4079
▁Advance	-12.4081
▁nap	-12.4086
▁diminish	-12.4087
▁administer	-12.4087
▁extract	-12.4089
▁India	-12.4094
▁Scar	-12.4095
▁urach	-12.4096
▁holo	-12.4097
▁citr	-12.4099
Fasciol	-12.41
▁microvill	-12.41
omprehensive	-12.4101
ultifactorial	-12.4101
▁dramatic	-12.4102
▁nav	-12.4102
▁synovi	-12.4102
▁Tyrosine	-12.4102
MGUS	-12.4102
Rhabdomyosarcoma	-12.4102
activating	-12.4102
ceptive	-12.4102
evacizumab	-12.4102
gnosia	-12.4102
orseshoe	-12.4102
resolution	-12.4102
rimethylaminuria	-12.4102
uveitis	-12.4102
ypercortisolism	-12.4102
▁9-1-1	-12.4102
▁Adhesions	-12.4102
▁Bilirubin	-12.4102
▁Blister	-12.4102
▁Calcification	-12.4102
▁Chordoma	-12.4102
▁Dietitian	-12.4102
▁Dutch	-12.4102
▁ERCC	-12.4102
▁Ehrlichia	-12.4102
▁France	-12.4102
▁GABA	-12.4102
▁IRAK	-12.4102
▁Insufficiency	-12.4102
▁Occupational	-12.4102
▁Participat	-12.4102
▁Porokeratosis	-12.4102
▁Previous	-12.4102
▁School	-12.4102
▁Steatocystoma	-12.4102
▁Trismus	-12.4102
▁adenylosuccina	-12.4102
▁alkalosis	-12.4102
▁biofeedback	-12.4102
▁cigar	-12.4102
▁cotton	-12.4102
▁craving	-12.4102
▁deciliter	-12.4102
▁dysregulation	-12.4102
▁embolization	-12.4102
▁emergencies	-12.4102
▁exclude	-12.4102
▁facilitate	-12.4102
▁glioblastoma	-12.4102
▁guidance	-12.4102
▁happy	-12.4102
▁heteroplasia	-12.4102
▁hexokinase	-12.4102
▁hypothalamic	-12.4102
▁immunity	-12.4102
▁licensed	-12.4102
▁mesylate	-12.4102
▁norepinephrine	-12.4102
▁osteoplastica	-12.4102
▁panel	-12.4102
▁polyangiitis	-12.4102
▁polymorphic	-12.4102
▁rehydration	-12.4102
▁sauce	-12.4102
▁tomatoes	-12.4102
▁towels	-12.4102
▁unpredictable	-12.4102
▁utensils	-12.4102
▁worried	-12.4102
▁writhing	-12.4102
bsessive	-12.4102
▁Broncho	-12.4102
▁Exostos	-12.4102
▁Freckl	-12.4102
▁Important	-12.4102
▁Mesomelia	-12.4102
▁TAAD	-12.4102
▁Taurodonti	-12.4102
▁aspartyl	-12.4102
▁frame	-12.4102
▁imatinib	-12.4102
▁nonsmokers	-12.4102
▁sneeze	-12.4102
▁worst	-12.4102
▁Thymic	-12.4102
▁abrupt	-12.4102
▁leukoplakia	-12.4102
▁mammogram	-12.4102
▁radon	-12.4102
▁flesh	-12.4102
▁DLB	-12.4102
▁trademark	-12.4102
▁Pericarditis	-12.4102
▁Lead	-12.4102
▁NDP	-12.4102
▁agency	-12.4102
▁Relax	-12.4102
▁hypopituitarism	-12.4102
▁prophylaxis	-12.4102
▁2,300	-12.4102
▁fibrinogen	-12.4102
▁contamination	-12.4102
▁finish	-12.4102
▁superactivity	-12.4102
▁hives	-12.4103
PARK	-12.4103
▁horse	-12.4103
▁pector	-12.4103
▁referral	-12.4103
▁epithelioid	-12.4103
▁Cystoscopy	-12.4103
▁Ependymoma	-12.4103
▁MYO	-12.4103
▁torsion	-12.4103
▁stillbirth	-12.4103
▁gangrene	-12.4103
▁trace	-12.4103
▁Myelofibrosis	-12.4103
▁Southeast	-12.4103
▁Transmission	-12.4103
eased	-12.4103
▁hyperprolinemia	-12.4103
▁Listen	-12.4103
▁ketoacidosis	-12.4103
OHF	-12.4103
▁grand	-12.4103
▁jawbone	-12.4103
ATRX	-12.4104
sparing	-12.4104
▁Hypocalcemia	-12.4104
▁exit	-12.4104
ypoketotic	-12.4104
▁parenteral	-12.4105
▁Gender	-12.4105
▁calf	-12.4105
▁wrap	-12.4105
▁periodically	-12.4105
▁Anticonvulsant	-12.4105
▁Iodine	-12.4105
▁microdontia	-12.4105
▁mouse	-12.4105
▁WNT	-12.4105
ataxin	-12.4105
▁telephone	-12.4105
▁clog	-12.4106
▁upsetting	-12.4106
CRL	-12.4106
▁experimental	-12.4107
▁starve	-12.4107
23.2	-12.4108
▁NMO	-12.4108
ioneuroblastoma	-12.4108
▁Lymphocytes	-12.4109
liability	-12.411
▁ALSP	-12.411
glut	-12.411
rrhe	-12.4111
▁blinking	-12.4111
▁DEC	-12.4112
reating	-12.4113
▁conjuncti	-12.4113
▁cas	-12.4115
▁Never	-12.4115
▁epidermolytic	-12.4116
▁phyt	-12.4117
▁loop	-12.4117
▁endings	-12.4118
▁investigator	-12.4118
▁taller	-12.4118
cystitis	-12.4119
▁shorten	-12.4119
▁Moh	-12.4124
▁Careful	-12.4125
▁Ricket	-12.4126
▁probiotics	-12.4127
▁supervise	-12.4127
▁120/	-12.4128
PPV	-12.4128
kg	-12.4128
▁GSDI	-12.413
extra	-12.4131
Rosen	-12.4133
romatic	-12.4134
branchiootorenal	-12.4137
▁FMF	-12.4141
▁Toxoplasma	-12.4141
▁malaise	-12.4141
▁Perio	-12.4145
▁monthly	-12.4145
▁tense	-12.4147
▁CIS	-12.4148
▁pulled	-12.415
▁users	-12.415
▁aspergillosis	-12.4151
▁Mant	-12.4151
1.7	-12.4155
▁chondrocytes	-12.4155
mmer	-12.4159
treat	-12.416
▁alleviat	-12.4162
▁asphyxia	-12.4162
▁Les	-12.4166
▁acetyl	-12.4167
hallow	-12.4169
▁grooves	-12.417
▁recipients	-12.417
▁Lysosome	-12.4171
▁agitation	-12.4173
▁Original	-12.4176
▁mites	-12.4177
▁agonists	-12.418
POF	-12.4189
War	-12.4193
/7	-12.4193
▁IN	-12.4195
▁Statu	-12.4197
▁pox	-12.4198
▁bound	-12.4198
▁paresis	-12.4206
/11	-12.421
▁wings	-12.421
polymorphisms	-12.4211
▁RET	-12.4215
RAF	-12.4219
GH	-12.4224
▁hyperkalemi	-12.4227
▁Legs	-12.4251
▁NR	-12.4252
toid	-12.4256
PCI	-12.4257
rotection	-12.4259
▁70%	-12.4264
▁baths	-12.4267
ipping	-12.427
▁vaccinations	-12.4275
24-	-12.4281
istic	-12.4284
▁pallor	-12.4284
FLI	-12.4288
▁NCLs	-12.4288
17-	-12.4289
▁pits	-12.4301
▁IBM	-12.4305
▁Eosinophil	-12.4308
▁sprays	-12.4309
▁fed	-12.4312
▁meeting	-12.4315
polyuria	-12.4324
▁facio	-12.4328
▁wing	-12.4331
▁coarse	-12.4342
▁72	-12.4344
ricate	-12.4359
▁Say	-12.4366
pinky	-12.4372
▁Tar	-12.4375
▁aqua	-12.4376
iasis	-12.4378
▁1-2	-12.4382
▁tape	-12.4383
lymph	-12.4388
▁asymmetric	-12.4391
CRP	-12.4395
▁aggregates	-12.4402
▁returning	-12.4406
▁bulges	-12.4407
glia	-12.4413
▁Patche	-12.4422
▁hydro	-12.4429
▁submitt	-12.445
▁mar	-12.4453
lastin	-12.4456
harl	-12.4457
Weiss	-12.4473
▁Kl	-12.4477
▁erections	-12.4487
Ho	-12.45
▁Smoke	-12.4506
American	-12.4509
lipid	-12.4509
▁Conjunctiv	-12.451
olipid	-12.4523
▁Rie	-12.4527
ocele	-12.4528
bility	-12.4532
▁happening	-12.454
articular	-12.4546
agen	-12.4549
rle	-12.4549
KT	-12.4551
▁ME	-12.4553
intracranial	-12.4556
mount	-12.4556
releas	-12.4556
▁Epi	-12.4563
eukocytosis	-12.4568
▁foundation	-12.4576
micro	-12.4584
fast	-12.4586
ngue	-12.4589
cyanosis	-12.46
ullin	-12.4604
flow	-12.4605
AFP	-12.4612
inhibit	-12.4613
myelin	-12.4613
carboxylase	-12.4613
helix	-12.4613
contract	-12.4613
palpitations	-12.4614
Sjgren	-12.4614
proximal	-12.4614
rheumato	-12.4615
acquired	-12.4615
tube	-12.4615
clinic	-12.4615
front	-12.4615
molar	-12.4617
HSD	-12.4618
weight	-12.4619
▁caretaker	-12.4621
LCAT	-12.4621
▁hundred	-12.4622
▁sedative	-12.4622
▁bread	-12.4623
▁TPM	-12.4623
▁instance	-12.4624
▁electrode	-12.4624
▁question	-12.4624
▁antidepressant	-12.4624
palmoplantar	-12.4628
▁model	-12.463
▁Perine	-12.4631
ADA	-12.4634
vessel	-12.4636
looking	-12.4637
regulat	-12.4638
▁Change	-12.4642
▁nephron	-12.4643
▁Myelin	-12.4652
▁ju	-12.4652
total	-12.4654
ckle	-12.4661
poly	-12.4663
▁participat	-12.4668
cephalic	-12.4672
mucosal	-12.4676
PCH	-12.4686
▁Access	-12.469
▁helic	-12.4698
▁vagu	-12.4704
pileptic	-12.4705
▁Hb	-12.4705
▁dilate	-12.4707
▁Catheter	-12.471
▁uni	-12.4712
▁improper	-12.4716
ipoatrophy	-12.4717
▁respective	-12.4717
▁necessar	-12.4719
▁darken	-12.472
yanosis	-12.4721
Americans	-12.4722
alcinosis	-12.4725
acent	-12.4725
ellular	-12.4726
▁hantavirus	-12.4726
▁adj	-12.4726
▁book	-12.4726
pectrum	-12.4726
ellulitis	-12.4726
▁sulfa	-12.4727
astritis	-12.4727
▁cholangi	-12.4727
mphysema	-12.4727
▁Occur	-12.4727
lycosylation	-12.4727
ejun	-12.4727
▁Wou	-12.4727
▁DOLK	-12.4727
▁registr	-12.4727
▁sponsor	-12.4727
▁uromodulin	-12.4727
CBAVD	-12.4727
HNPCC	-12.4727
NIAMS	-12.4727
iplopia	-12.4727
ntifungal	-12.4727
zoospermia	-12.4727
▁Aphasia	-12.4727
▁Arsenic	-12.4727
▁Cholestasis	-12.4727
▁Choroid	-12.4727
▁DOCK	-12.4727
▁Deletion	-12.4727
▁FIPA	-12.4727
▁Fibrillation	-12.4727
▁Francisco	-12.4727
▁Heredity	-12.4727
▁IMAGe	-12.4727
▁Kingdom	-12.4727
▁MITF	-12.4727
▁PMAH	-12.4727
▁PROK	-12.4727
▁Pyelonephritis	-12.4727
▁Spasm	-12.4727
▁Spong	-12.4727
▁Swallow	-12.4727
▁Tomography	-12.4727
▁Torrance	-12.4727
▁Visit	-12.4727
▁agencies	-12.4727
▁aggression	-12.4727
▁aphakia	-12.4727
▁burnetii	-12.4727
▁business	-12.4727
▁cakes	-12.4727
▁candidate	-12.4727
▁coconut	-12.4727
▁colchicine	-12.4727
▁colostomy	-12.4727
▁condoms	-12.4727
▁considerably	-12.4727
▁controversial	-12.4727
▁copied	-12.4727
▁display	-12.4727
▁drowsy	-12.4727
▁eMedicine	-12.4727
▁endplate	-12.4727
▁expertise	-12.4727
▁eyesight	-12.4727
▁flavor	-12.4727
▁forgetfulness	-12.4727
▁hepatoblastoma	-12.4727
▁heterozygous	-12.4727
▁meningioma	-12.4727
▁neuroleptic	-12.4727
▁paresthetic	-12.4727
▁splenectomy	-12.4727
▁stabilizing	-12.4727
▁steatohepatitis	-12.4727
▁unnecessary	-12.4727
brachycephaly	-12.4727
megakaryocyt	-12.4727
▁Keratitis	-12.4727
▁Rash	-12.4727
▁blades	-12.4727
▁impotence	-12.4727
▁plasmacytoma	-12.4727
▁policy	-12.4727
bifid	-12.4727
constitutive	-12.4727
▁Chemopreventi	-12.4727
▁EWS	-12.4727
▁Meleda	-12.4727
▁bronchoscopy	-12.4727
rigonocephaly	-12.4727
▁enterocolitis	-12.4727
▁domain	-12.4727
Torre	-12.4727
▁TTN	-12.4727
▁calluses	-12.4727
hypoxia	-12.4727
▁Animal	-12.4727
▁thiopurine	-12.4727
▁Immediate	-12.4727
▁microfilariae	-12.4727
KFD	-12.4727
▁tailbone	-12.4727
omonas	-12.4727
▁autofluorescent	-12.4727
mbra	-12.4727
▁CRH	-12.4727
▁germinal	-12.4727
trunc	-12.4727
▁3/3	-12.4727
▁CTNN	-12.4728
▁ejaculation	-12.4728
▁Thrombosis	-12.4728
▁mastopathy	-12.4728
▁dysmorphism	-12.4728
▁Colonoscopy	-12.4728
▁Cramp	-12.4728
PUVA	-12.4728
▁delusions	-12.4728
▁Tools	-12.4728
▁serine	-12.4728
▁titin	-12.4728
▁acuta	-12.4728
▁Enzyme	-12.4728
▁prophylactic	-12.4728
▁Alstr	-12.4728
▁Keratosis	-12.4728
▁RBM	-12.4728
▁Stru	-12.4728
▁discolored	-12.4728
▁dough	-12.4729
▁liter	-12.4729
Conradi	-12.4729
▁Triple	-12.4729
▁colonoscope	-12.4729
omberg	-12.4729
▁substantial	-12.4729
neuropathic	-12.4729
▁dirt	-12.4729
endra	-12.4729
▁compresses	-12.473
▁Hallerman	-12.473
▁cattle	-12.473
▁hay	-12.4731
▁pouches	-12.4731
▁restlessness	-12.4731
▁methylation	-12.4731
cytoplasm	-12.4731
INF	-12.4732
▁PLO	-12.4732
▁spinach	-12.4732
▁mixes	-12.4733
ouston	-12.4733
▁AFF	-12.4733
stippling	-12.4733
thrombocytes	-12.4733
▁Dark	-12.4735
wick	-12.4735
pocket	-12.4735
▁GAN	-12.4736
▁Trial	-12.4737
▁FXPOI	-12.4739
▁chylomicron	-12.4739
alnutrition	-12.4739
▁emerge	-12.474
▁prolactinoma	-12.474
▁tau	-12.4741
▁Branchio	-12.4741
DPPOS	-12.4741
▁Asymmetry	-12.4742
ealand	-12.4744
Catheterization	-12.4745
▁pad	-12.4745
COP	-12.4747
▁2012	-12.4747
▁Enter	-12.4749
doors	-12.4751
▁polyp	-12.4752
headed	-12.4754
▁PSP	-12.4757
▁IIIE	-12.4761
cognition	-12.4761
▁Cyclospora	-12.4761
agit	-12.4763
▁packages	-12.4765
▁MFDM	-12.4769
▁ACC	-12.4769
▁infliximab	-12.4773
SCL	-12.4777
▁microtia	-12.478
▁donation	-12.4782
road	-12.4783
▁crossed	-12.4789
hyperhidrosis	-12.479
▁Results	-12.4793
egg	-12.4794
▁MFH	-12.4799
▁membran	-12.48
cupping	-12.48
▁MCD	-12.4803
▁IVC	-12.4804
▁List	-12.4812
▁trips	-12.4816
ohn	-12.4816
eyed	-12.4818
▁TEE	-12.482
▁Chemicals	-12.4821
▁quarter	-12.4824
▁hydrogenat	-12.4824
near	-12.4825
▁snails	-12.4828
▁64	-12.4831
block	-12.4833
▁Hema	-12.4836
▁entirely	-12.4839
▁Perni	-12.4848
▁Flo	-12.485
▁coat	-12.4855
▁44	-12.4857
▁Transfusions	-12.4862
mpt	-12.4867
▁formulas	-12.4876
▁vibrations	-12.4883
▁metop	-12.489
RET	-12.4891
ishi	-12.4899
Islet	-12.4899
DM	-12.4908
even	-12.4911
omatosis	-12.4912
▁malon	-12.4929
fluorescent	-12.4945
▁Works	-12.4946
▁conjunctivitis	-12.4947
700	-12.4961
▁PAP	-12.4961
▁earlobes	-12.4961
Ch	-12.4962
presses	-12.4965
▁reasonabl	-12.4969
arry	-12.4971
rapeutic	-12.4976
5.7	-12.4977
raf	-12.4986
NKH	-12.4988
▁Hu	-12.5004
eosinophilia	-12.5006
AAT	-12.5008
thor	-12.502
rectal	-12.5024
▁purposes	-12.5031
olysis	-12.5036
▁conceive	-12.5048
BTK	-12.505
CAN	-12.5051
tude	-12.5068
▁spermat	-12.5074
▁nourish	-12.5079
▁maintained	-12.5088
PI	-12.5095
dling	-12.5097
paresis	-12.5112
▁accelerat	-12.5119
itting	-12.5123
EMD	-12.5125
ji	-12.5127
▁positioning	-12.5128
▁freeze	-12.514
▁permit	-12.5152
mol	-12.5155
oculofaci	-12.5156
▁spott	-12.5164
Dihydropyrimidin	-12.5175
STK	-12.5179
mitted	-12.5194
▁glyc	-12.5197
▁Actin	-12.5201
▁retriev	-12.5207
audi	-12.5214
chalasia	-12.5219
function	-12.522
llergic	-12.5224
▁rotat	-12.5225
termittent	-12.5241
ible	-12.5244
arteri	-12.525
Schn	-12.5251
▁Out	-12.5256
▁describ	-12.5264
ropia	-12.5265
balanced	-12.5279
hematoma	-12.5279
NHPP	-12.5279
sulfatase	-12.5279
NCL	-12.528
Opitz	-12.5281
behavioral	-12.5281
carrier	-12.5282
CML	-12.5283
half	-12.5283
icrovascular	-12.5283
EEG	-12.5285
determined	-12.5287
PTH	-12.5287
▁anticoagulant	-12.5287
▁challenge	-12.5287
PET	-12.5287
before	-12.5289
▁snail	-12.5289
▁outdoor	-12.5289
▁schwannoma	-12.529
▁Steroid	-12.529
▁bran	-12.5291
▁Infant	-12.5291
▁centimeter	-12.5291
STD	-12.5294
▁Neurologi	-12.5297
whether	-12.5298
functioning	-12.5303
Paranasal	-12.5304
Gr	-12.5304
gain	-12.5311
feet	-12.5315
cope	-12.532
▁broncho	-12.5325
Calv	-12.5329
ypoventilation	-12.533
▁symmetric	-12.5334
▁resembl	-12.5337
epicanth	-12.5337
vari	-12.5344
trol	-12.5348
▁stiffen	-12.5367
tant	-12.5368
▁nicotin	-12.5371
▁elevat	-12.5375
▁observ	-12.5377
▁pinch	-12.5384
▁analyze	-12.5385
▁megalencephal	-12.5386
▁expose	-12.539
style	-12.539
▁lay	-12.539
▁oligo	-12.5391
cracker	-12.5393
nloc	-12.5393
yperlipidemia	-12.5393
lutathione	-12.5394
itiligo	-12.5394
rythroderma	-12.5394
emedicine	-12.5394
▁acetylcholine	-12.5394
▁Christianson	-12.5394
▁Tempor	-12.5394
Canadian	-12.5394
Hypophosphatasia	-12.5394
UIT	-12.5394
achypnea	-12.5394
diadochokinesis	-12.5394
domethacin	-12.5394
fluoropyrimidine	-12.5394
gnatho	-12.5394
nocent	-12.5394
oikiloderma	-12.5394
streptococcal	-12.5394
yperferritinemia	-12.5394
▁Aldosteron	-12.5394
▁Babesia	-12.5394
▁Bisphosphonate	-12.5394
▁CFEOM	-12.5394
▁CPEO	-12.5394
▁Colpocephaly	-12.5394
▁Contracture	-12.5394
▁Hyperammonemia	-12.5394
▁Indigestion	-12.5394
▁Malignancies	-12.5394
▁Medigap	-12.5394
▁Medulloblastoma	-12.5394
▁Nephritis	-12.5394
▁Scleroderma	-12.5394
▁Sialidosis	-12.5394
▁Thrombocytosis	-12.5394
▁VDDR	-12.5394
▁VLDLR	-12.5394
▁acquisita	-12.5394
▁appliance	-12.5394
▁application	-12.5394
▁blemishes	-12.5394
▁blurring	-12.5394
▁campaign	-12.5394
▁carcinosarcoma	-12.5394
▁confetti	-12.5394
▁dialyzer	-12.5394
▁drusen	-12.5394
▁efficacy	-12.5394
▁furniture	-12.5394
▁guanine	-12.5394
▁implicated	-12.5394
▁incidentally	-12.5394
▁ineffective	-12.5394
▁insufficient	-12.5394
▁knock	-12.5394
▁limp	-12.5394
▁malignancy	-12.5394
▁marijuana	-12.5394
▁marmorata	-12.5394
▁morphea	-12.5394
▁mortality	-12.5394
▁necrolysis	-12.5394
▁palsies	-12.5394
▁pentosuria	-12.5394
▁peritonitis	-12.5394
▁profile	-12.5394
▁puffy	-12.5394
▁purpuric	-12.5394
▁pyrimidine	-12.5394
▁rectocele	-12.5394
▁sesame	-12.5394
▁significance	-12.5394
▁skewed	-12.5394
▁soybean	-12.5394
▁summer	-12.5394
▁sunflower	-12.5394
▁tortillas	-12.5394
Saguenay	-12.5394
▁Midline	-12.5394
▁Pustul	-12.5394
▁Schistosomiasis	-12.5394
▁TTY	-12.5394
▁Tofu	-12.5394
▁advantage	-12.5394
▁bruit	-12.5394
▁leaf	-12.5394
▁preferences	-12.5394
▁quiet	-12.5394
dermatosclerosis	-12.5394
involut	-12.5394
yoderma	-12.5394
▁Bronchoscopy	-12.5394
▁chlorine	-12.5394
▁crush	-12.5394
▁money	-12.5394
▁Endocarditis	-12.5394
▁spicy	-12.5394
metatropic	-12.5394
▁Hyperthermi	-12.5394
▁journal	-12.5394
▁threat	-12.5394
▁arrive	-12.5394
▁Glass	-12.5394
▁Inject	-12.5394
▁disomy	-12.5394
▁GSDIII	-12.5394
▁Race	-12.5394
▁Pathologi	-12.5394
▁Phosphorus	-12.5394
▁sylvius	-12.5394
curving	-12.5394
▁prongs	-12.5394
▁Providers	-12.5394
▁Travelers	-12.5394
▁Clean	-12.5394
▁hypocretin	-12.5394
▁pace	-12.5394
▁stomatitis	-12.5394
▁SDHD	-12.5394
▁law	-12.5394
▁MCAP	-12.5394
cytosine	-12.5394
▁sitosterolemia	-12.5394
▁blastoma	-12.5394
▁IDH	-12.5394
▁Oct	-12.5394
▁Smokefree	-12.5394
▁molybdenum	-12.5394
Hypersensitivity	-12.5394
▁KRAS	-12.5394
▁intracellular	-12.5394
▁schizophrenia	-12.5395
▁Break	-12.5395
▁Strong	-12.5395
▁Blockers	-12.5395
▁tarry	-12.5395
▁selenium	-12.5395
▁hyperlipidemia	-12.5395
▁SOST	-12.5395
enke	-12.5395
unice	-12.5395
▁pilomatrixoma	-12.5395
▁carbamoyl	-12.5395
▁spill	-12.5395
HFI	-12.5395
kull	-12.5395
▁conventional	-12.5395
▁NCF	-12.5395
▁Toxins	-12.5395
▁NARP	-12.5395
CdLS	-12.5396
tegrative	-12.5396
immed	-12.5396
electromyography	-12.5396
▁periodontitis	-12.5396
eningocele	-12.5396
▁Palp	-12.5396
hich	-12.5396
ffner	-12.5396
▁assume	-12.5396
▁SPG	-12.5397
▁albuminuria	-12.5397
ypic	-12.5397
▁slit	-12.5397
▁branchio	-12.5397
▁SERPINA	-12.5398
XLH	-12.5398
▁Pall	-12.5398
▁RAD	-12.5398
ilent	-12.5399
▁2014	-12.5399
▁Nut	-12.5399
▁Tick	-12.5399
▁FMD	-12.5399
DRB	-12.5399
▁KID	-12.5399
▁embarrassed	-12.54
▁overnight	-12.54
▁scattered	-12.5402
▁pants	-12.5403
▁biting	-12.5403
▁Dopa	-12.5404
▁IRF	-12.5405
▁ingested	-12.5405
▁enroll	-12.5405
AHF	-12.5408
osteosclerosis	-12.5409
▁Now	-12.541
▁MSH	-12.5412
▁Surgeons	-12.5413
▁game	-12.5413
▁areata	-12.5415
gynecomastia	-12.5417
▁fluor	-12.5417
▁reversal	-12.5417
malonyl	-12.542
▁oxidation	-12.5421
▁oily	-12.5421
▁fixed	-12.5422
▁MNGIE	-12.5422
▁starch	-12.5424
▁Recently	-12.5426
▁sclerosus	-12.5428
▁FISH	-12.543
▁activator	-12.543
▁Vera	-12.5433
choana	-12.5435
▁CMS	-12.5436
▁nutritionist	-12.5438
▁Cytochrome	-12.544
▁gases	-12.5441
▁telomeres	-12.5442
ius	-12.5443
▁GTD	-12.5447
▁DLD	-12.5447
hypercalciuria	-12.5447
LCHAD	-12.5448
astern	-12.5449
▁NLM	-12.5449
▁wad	-12.545
elman	-12.5453
▁GSS	-12.5455
crab	-12.5456
▁creamer	-12.5457
oxide	-12.5462
litoromegaly	-12.5463
▁grain	-12.5463
▁oval	-12.5465
laz	-12.5467
hemi	-12.5472
▁bending	-12.5479
▁plates	-12.5479
▁Shorten	-12.548
▁choreoathetosis	-12.5483
▁She	-12.5487
▁Date	-12.549
▁kerato	-12.549
▁Atel	-12.5491
ICE	-12.5498
▁binder	-12.5499
▁adn	-12.55
▁differential	-12.5504
▁metabolize	-12.5506
▁Erythropoieti	-12.5512
▁rats	-12.5517
ON	-12.5519
▁Lem	-12.552
▁molar	-12.5521
▁Syn	-12.5525
allow	-12.5526
96	-12.5531
▁molds	-12.5531
egaloblastic	-12.5538
▁achromatopsia	-12.5546
have	-12.5548
handler	-12.5549
▁minimiz	-12.5551
▁hosts	-12.5554
▁hazards	-12.5554
▁regrow	-12.5554
▁radicals	-12.5569
▁angio	-12.5577
mmunosuppressive	-12.558
you	-12.5582
▁mm	-12.5588
emen	-12.559
▁draining	-12.5594
▁pH	-12.5599
ndau	-12.5603
lobar	-12.5619
▁investigations	-12.5629
itz	-12.5634
▁restored	-12.565
saw	-12.5655
lessness	-12.5662
▁radiograph	-12.5663
ither	-12.5668
▁muc	-12.5693
itin	-12.5695
▁MC	-12.5695
arium	-12.5706
▁Lactat	-12.5714
▁34	-12.575
▁Bru	-12.5755
gui	-12.5773
MAT	-12.5778
TI	-12.5789
▁Lichen	-12.579
▁neutral	-12.5802
▁pasta	-12.5806
110	-12.581
▁prep	-12.5822
▁Saliva	-12.5835
▁submit	-12.5835
transmitting	-12.5838
▁Nephroblastoma	-12.5846
▁kit	-12.5848
gingiv	-12.5851
oodborne	-12.5861
ati	-12.5861
ketot	-12.5869
Sequ	-12.5895
galactose	-12.5898
▁Cris	-12.5905
▁branchi	-12.5922
▁Sclero	-12.5932
epileptic	-12.5937
▁Time	-12.5941
compatibility	-12.5956
▁demonstrat	-12.5964
▁vill	-12.5968
fective	-12.5975
synthesis	-12.5988
asciculations	-12.5993
bound	-12.5993
unilateral	-12.5994
carnitine	-12.5994
body	-12.5994
differentiate	-12.5994
Trials	-12.5995
midface	-12.5995
atherosclerosis	-12.5995
ulcers	-12.5996
glaucoma	-12.5996
exposed	-12.5996
blockers	-12.5996
enlarged	-12.5996
difficulty	-12.5996
Blood	-12.5996
VHL	-12.5996
unusually	-12.5996
Pro	-12.5997
encephalitis	-12.5997
severe	-12.5997
fatty	-12.5998
visual	-12.6002
▁Chemical	-12.6002
CFS	-12.6003
▁ointment	-12.6003
▁shoe	-12.6004
remission	-12.6004
Lem	-12.6004
▁Corticosteroid	-12.6004
▁Service	-12.6005
▁nodule	-12.6005
without	-12.6011
pox	-12.6015
Kle	-12.6016
▁sometime	-12.6027
▁Fina	-12.6029
EST	-12.6037
obacter	-12.6042
6,000	-12.6054
▁train	-12.6062
▁RP	-12.6063
gulation	-12.6079
ixture	-12.6084
▁hidraden	-12.6085
▁magnif	-12.6087
▁fertilize	-12.6087
pee	-12.6091
▁Well	-12.6092
▁document	-12.6093
hanging	-12.6093
oster	-12.6095
▁Typical	-12.6098
terygium	-12.6106
gonadal	-12.6106
▁Steno	-12.6107
tereotactic	-12.6107
▁regress	-12.6107
yperprolinemia	-12.6107
ydatid	-12.6107
▁pyridox	-12.6108
astroenteritis	-12.6108
spondyl	-12.6108
▁myoglobin	-12.6108
▁endocardi	-12.6108
uestions	-12.6108
rnsta	-12.6108
▁text	-12.6108
ackson	-12.6108
aldehyde	-12.6108
edderhose	-12.6108
▁Molecular	-12.6108
adenosyl	-12.6108
▁Build	-12.6108
▁enterocolitica	-12.6108
▁whipplei	-12.6108
FIHP	-12.6108
hidden	-12.6108
iencephaly	-12.6108
intensification	-12.6108
lkaptonuria	-12.6108
opportunistic	-12.6108
phenylalaninemia	-12.6108
vaccinated	-12.6108
▁Ammonia	-12.6108
▁Anticoagulants	-12.6108
▁Arthrogryposis	-12.6108
▁Blephar	-12.6108
▁Bronchiolitis	-12.6108
▁Cholangitis	-12.6108
▁Clostridium	-12.6108
▁Corpus	-12.6108
▁Diuretics	-12.6108
▁Erythromelalgia	-12.6108
▁Goiter	-12.6108
▁Heterotopia	-12.6108
▁Israel	-12.6108
▁Keratoderma	-12.6108
▁Legumes	-12.6108
▁Megalocornea	-12.6108
▁Mexico	-12.6108
▁Prolapse	-12.6108
▁Prosopagnosia	-12.6108
▁Receptor	-12.6108
▁SDHB	-12.6108
▁SLITRK	-12.6108
▁Tamoxifen	-12.6108
▁addiction	-12.6108
▁antipsychotic	-12.6108
▁benzodiazepines	-12.6108
▁calculate	-12.6108
▁chickpeas	-12.6108
▁cholecystectomy	-12.6108
▁chromatid	-12.6108
▁displaced	-12.6108
▁dressed	-12.6108
▁duplicated	-12.6108
▁echocardiogram	-12.6108
▁flood	-12.6108
▁flour	-12.6108
▁fuel	-12.6108
▁heaviness	-12.6108
▁heparan	-12.6108
▁homo	-12.6108
▁hyalinosis	-12.6108
▁international	-12.6108
▁isoleucine	-12.6108
▁laparotomy	-12.6108
▁neuroserpin	-12.6108
▁neurosurgeon	-12.6108
▁nodosa	-12.6108
▁opacity	-12.6108
▁perinatal	-12.6108
▁pigmentosus	-12.6108
▁pustul	-12.6108
▁solvents	-12.6108
▁spelling	-12.6108
▁sterols	-12.6108
pachygyria	-12.6108
▁Mucus	-12.6108
▁Neutral	-12.6108
trafficking	-12.6108
▁Gastroschisis	-12.6108
▁Nakajo	-12.6108
▁scaling	-12.6108
AMACR	-12.6108
▁CLL	-12.6108
▁NSD	-12.6108
▁Signal	-12.6108
▁glycolysis	-12.6108
Hydroxy	-12.6108
▁HMG	-12.6108
▁dysgerminoma	-12.6108
minosalicylates	-12.6108
▁Adduct	-12.6108
▁pulmonologist	-12.6108
GALT	-12.6108
▁itchiness	-12.6108
▁monilethrix	-12.6108
GCPS	-12.6108
▁POMC	-12.6108
▁Teach	-12.6108
▁laughter	-12.6108
▁laryngectomy	-12.6108
▁microwave	-12.6108
▁osteomyelitis	-12.6108
▁shut	-12.6108
▁Endocrinologist	-12.6108
▁bothersome	-12.6108
▁COMP	-12.6109
▁PPS	-12.6109
▁pigs	-12.6109
▁socks	-12.6109
▁valproate	-12.6109
▁hatch	-12.6109
▁ureteroscope	-12.6109
▁Flatten	-12.6109
▁stridor	-12.6109
▁pellucidum	-12.6109
▁Froe	-12.6109
▁spinning	-12.6109
acromelic	-12.6109
▁succinyl	-12.6109
▁Kasa	-12.6109
▁Illnesses	-12.6109
▁sialuria	-12.6109
▁Geograph	-12.6109
▁CDKN	-12.611
▁CDK	-12.611
▁pons	-12.611
▁Prolactinoma	-12.611
▁cola	-12.611
AADC	-12.611
UBA	-12.611
▁EDAR	-12.611
▁borderline	-12.611
noncancer	-12.611
▁Folate	-12.611
ovascularis	-12.611
▁Relative	-12.6111
telangiectases	-12.6111
PME	-12.6111
▁biology	-12.6111
▁Cool	-12.6111
CVD	-12.6111
▁waistline	-12.6111
▁Stent	-12.6112
▁code	-12.6112
enbo	-12.6112
▁similarities	-12.6112
▁FREM	-12.6112
IDU	-12.6112
▁ethnicity	-12.6113
▁BPPV	-12.6114
▁conversation	-12.6114
TSI	-12.6114
▁TBX	-12.6114
▁pyr	-12.6114
▁strongest	-12.6114
MOG	-12.6115
COFS	-12.6115
▁fallen	-12.6115
▁inhaler	-12.6116
▁Gua	-12.6116
▁Bj	-12.6116
▁incubat	-12.6117
ierre	-12.6118
ynapses	-12.6119
▁stretches	-12.6119
▁DHT	-12.612
nuh	-12.6121
▁basil	-12.6121
▁KL	-12.6121
esterase	-12.6121
▁pinched	-12.6125
ragus	-12.6125
guanidinoacetate	-12.6127
▁pulmon	-12.6128
▁keratinocytes	-12.6128
▁yolks	-12.6128
kb	-12.6128
▁petechiae	-12.613
ATN	-12.6132
▁compressed	-12.6135
▁biomarkers	-12.6136
▁patchy	-12.6137
pill	-12.6138
▁pol	-12.6139
EOP	-12.614
▁capture	-12.614
▁attempted	-12.6142
▁Milder	-12.6143
nomal	-12.6144
▁HPP	-12.6146
▁accurately	-12.6146
▁winging	-12.6149
hypochromic	-12.6151
▁CHHF	-12.6156
▁LHON	-12.6156
▁Ceroid	-12.6157
duction	-12.6158
▁assembl	-12.6162
▁stimulator	-12.6167
yserythropoietic	-12.6168
▁Overactiv	-12.6169
NCAH	-12.6173
▁STAT	-12.6174
▁safer	-12.6176
▁CST	-12.6178
▁CIDP	-12.6182
▁Caucasians	-12.6184
▁aggressively	-12.6184
▁125	-12.6192
▁osteolysis	-12.62
TDP	-12.62
FHC	-12.62
KC	-12.6201
▁wart	-12.6202
▁rul	-12.6204
▁library	-12.6206
▁adjusted	-12.6206
▁frie	-12.6206
alactosemia	-12.6208
▁walnuts	-12.6208
▁clubfoot	-12.6209
thymine	-12.6217
▁Exot	-12.6218
▁wise	-12.6218
▁Sali	-12.6218
▁challenges	-12.6224
▁anticoagulants	-12.6224
mate	-12.6228
▁Paran	-12.6228
▁caretakers	-12.6232
ligodactyly	-12.6234
▁CHM	-12.624
▁healed	-12.6241
▁HSD	-12.6244
rose	-12.6245
▁AFP	-12.6252
▁Sacr	-12.6255
▁herbs	-12.6256
▁twins	-12.6264
▁Hard	-12.627
▁Veins	-12.6272
plas	-12.6274
charge	-12.6275
exal	-12.6299
oper	-12.6301
▁insulat	-12.6307
oxy	-12.6311
quin	-12.6311
▁weekly	-12.6315
rachnoiditis	-12.6319
LDH	-12.6349
ducing	-12.635
onounsaturated	-12.6353
▁Sun	-12.6377
▁Dec	-12.6379
MX	-12.6385
▁elongate	-12.6391
acylase	-12.6393
gmentation	-12.6393
nmen	-12.6414
▁Stu	-12.6417
▁Mycobacteri	-12.6421
roper	-12.6422
▁cata	-12.6428
OCD	-12.6432
AF	-12.6451
▁myo	-12.646
▁trip	-12.6472
done	-12.6474
▁blast	-12.6477
▁Blurr	-12.6493
▁hang	-12.653
lamella	-12.6536
German	-12.6588
▁lan	-12.6601
▁spoke	-12.6602
butyric	-12.6618
▁Myocardi	-12.6623
ypomyelination	-12.6632
▁TRE	-12.6632
LAM	-12.6638
DEB	-12.6644
▁Sho	-12.6646
conve	-12.6653
TK	-12.6656
fatality	-12.6662
Mb	-12.6663
inhibition	-12.6669
fle	-12.668
▁Hydro	-12.6694
▁Synovi	-12.6696
rginase	-12.6701
▁Investigat	-12.6704
ntitrypsin	-12.6704
last	-12.6709
versus	-12.6726
wise	-12.6732
▁invad	-12.6735
▁emotion	-12.6744
right	-12.6754
retina	-12.6761
wave	-12.6762
layer	-12.6762
hypertrichosis	-12.6763
MVD	-12.6763
SCID	-12.6764
tibial	-12.6764
ypogonadotrop	-12.6764
arthritis	-12.6764
cervical	-12.6764
fracture	-12.6764
neutropenia	-12.6764
rupture	-12.6765
spaced	-12.6765
ovaries	-12.6765
corpus	-12.6765
absent	-12.6765
stenosis	-12.6765
kidney	-12.6765
lesions	-12.6765
lymphocytes	-12.6765
oxygen	-12.6766
partial	-12.6766
examine	-12.6766
filter	-12.6766
noncancerous	-12.6767
ophthalmoplegia	-12.6767
Risk	-12.6767
acyl	-12.6769
▁walnut	-12.6771
paraplegia	-12.6771
▁titer	-12.6772
▁electrolyte	-12.6773
▁supplie	-12.6774
▁Patient	-12.6775
▁hun	-12.6778
isolated	-12.6779
Oll	-12.678
▁ache	-12.6784
yelomeningocele	-12.68
▁skip	-12.6806
ahara	-12.6807
fit	-12.6811
▁fibrill	-12.6814
uick	-12.6815
▁bow	-12.6816
une	-12.6825
▁pushe	-12.6829
▁twist	-12.683
ypochromic	-12.6831
RDS	-12.6833
postnatal	-12.6836
▁Adrenocortic	-12.684
▁occasion	-12.6848
glycoproteins	-12.6849
▁climb	-12.6853
▁Need	-12.6858
▁instruct	-12.6861
ogram	-12.6868
nei	-12.6869
▁characterize	-12.6869
LAS	-12.6869
▁respirator	-12.687
Pump	-12.6871
ketoacid	-12.6873
▁Improv	-12.6875
entronuclear	-12.6876
▁unaware	-12.6876
yskeratosis	-12.6876
▁reject	-12.6876
ehydrogenase	-12.6877
▁Place	-12.6877
libr	-12.6877
▁Neural	-12.6877
otulinum	-12.6877
pound	-12.6877
ormor	-12.6877
onspherocytic	-12.6877
epetitive	-12.6877
udley	-12.6877
▁Salmon	-12.6877
▁papilloma	-12.6877
IL	-12.6877
ccult	-12.6877
▁argininosuccin	-12.6877
Thrombocytopenic	-12.6877
emoptysis	-12.6877
glucosaminuria	-12.6877
onsequently	-12.6877
ossicles	-12.6877
predisposing	-12.6877
renaviruses	-12.6877
replicating	-12.6877
ysphasia	-12.6877
▁Allergies	-12.6877
▁Brazil	-12.6877
▁Charlevoix	-12.6877
▁Chilaiditi	-12.6877
▁Diverticulitis	-12.6877
▁Ebola	-12.6877
▁FIBGC	-12.6877
▁GACI	-12.6877
▁Gluten	-12.6877
▁Gorham	-12.6877
▁Homocystinuria	-12.6877
▁Hookworm	-12.6877
▁Hypothalamic	-12.6877
▁Insurance	-12.6877
▁Internet	-12.6877
▁Maroteaux	-12.6877
▁Murmur	-12.6877
▁Neutrophil	-12.6877
▁OGTT	-12.6877
▁Pattern	-12.6877
▁Peanut	-12.6877
▁Science	-12.6877
▁Spleen	-12.6877
▁Statins	-12.6877
▁Trichinella	-12.6877
▁Urodynamic	-12.6877
▁abortion	-12.6877
▁antacids	-12.6877
▁baclofen	-12.6877
▁biosynthetic	-12.6877
▁bitten	-12.6877
▁candidiasis	-12.6877
▁cava	-12.6877
▁clonazepam	-12.6877
▁clopidogrel	-12.6877
▁columella	-12.6877
▁company	-12.6877
▁dapsone	-12.6877
▁decongestants	-12.6877
▁descend	-12.6877
▁dreams	-12.6877
▁endotheliopathy	-12.6877
▁excellent	-12.6877
▁exostoses	-12.6877
▁fibrils	-12.6877
▁forelock	-12.6877
▁gabapentin	-12.6877
▁guarantee	-12.6877
▁heritage	-12.6877
▁homozygous	-12.6877
▁hystrix	-12.6877
▁implement	-12.6877
▁leiomyosarcoma	-12.6877
▁liquor	-12.6877
▁livestock	-12.6877
▁naproxen	-12.6877
▁octreotide	-12.6877
▁oocysts	-12.6877
▁penicillin	-12.6877
▁perceive	-12.6877
▁practitioner	-12.6877
▁qualify	-12.6877
▁redistribut	-12.6877
▁reticularis	-12.6877
▁stitches	-12.6877
▁stuffy	-12.6877
▁subject	-12.6877
▁survey	-12.6877
▁trembling	-12.6877
▁unclassifiable	-12.6877
▁unpasteurized	-12.6877
[...]
